<pad>	0
<unk>	0
<eos>	0
<usr>	0
<cot>	0
<bot>	0
▁a	-0
▁t	-1
in	-2
▁th	-3
▁h	-4
▁w	-5
▁s	-6
er	-7
ou	-8
at	-9
re	-10
on	-11
it	-12
▁b	-13
▁m	-14
▁the	-15
ing	-16
▁c	-17
nd	-18
▁f	-19
or	-20
en	-21
es	-22
▁p	-23
▁d	-24
is	-25
▁to	-26
mm	-27
ed	-28
▁l	-29
▁o	-30
an	-31
al	-32
▁ha	-33
▁and	-34
▁y	-35
▁I	-36
▁ah	-37
▁hmm	-38
▁wh	-39
▁you	-40
ar	-41
▁g	-42
▁in	-43
om	-44
▁it	-45
▁be	-46
us	-47
▁n	-48
le	-49
ic	-50
▁of	-51
as	-52
▁e	-53
▁that	-54
ly	-55
ow	-56
ve	-57
ll	-58
ot	-59
ld	-60
et	-61
ay	-62
▁re	-63
▁i	-64
▁is	-65
ut	-66
ke	-67
ion	-68
id	-69
▁on	-70
out	-71
ac	-72
ent	-73
▁li	-74
▁st	-75
▁W	-76
ould	-77
▁for	-78
ver	-79
gh	-80
▁aha	-81
ith	-82
os	-83
▁with	-84
ir	-85
op	-86
▁but	-87
▁an	-88
▁do	-89
ad	-90
▁what	-91
▁me	-92
▁Wh	-93
im	-94
am	-95
oo	-96
▁my	-97
▁r	-98
▁ab	-99
ink	-100
▁was	-101
ter	-102
▁som	-103
▁they	-104
ct	-105
▁u	-106
▁j	-107
ere	-108
he	-109
▁like	-110
ust	-111
el	-112
▁"	-113
▁A	-114
ch	-115
▁are	-116
th	-117
▁T	-118
▁H	-119
▁so	-120
▁think	-121
▁would	-122
▁about	-123
use	-124
ght	-125
ers	-126
▁as	-127
ur	-128
ro	-129
▁What	-130
▁k	-131
ce	-132
▁your	-133
▁or	-134
▁we	-135
ri	-136
ha	-137
▁he	-138
▁have	-139
est	-140
▁se	-141
ally	-142
ca	-143
ill	-144
one	-145
ore	-146
▁ne	-147
▁ma	-148
st	-149
▁if	-150
▁not	-151
▁just	-152
▁con	-153
il	-154
▁S	-155
se	-156
▁some	-157
cause	-158
▁can	-159
eop	-160
▁ex	-161
eople	-162
▁because	-163
ol	-164
ation	-165
▁sh	-166
ra	-167
ess	-168
ul	-169
▁al	-170
..	-171
▁ch	-172
ant	-173
ge	-174
pp	-175
▁wor	-176
▁at	-177
▁su	-178
▁fr	-179
ab	-180
▁de	-181
ight	-182
um	-183
▁people	-184
ate	-185
un	-186
be	-187
▁get	-188
ist	-189
pe	-190
king	-191
▁out	-192
▁how	-193
qu	-194
▁v	-195
▁all	-196
em	-197
dit	-198
▁M	-199
▁from	-200
art	-201
ff	-202
▁pro	-203
ost	-204
▁R	-205
▁them	-206
hing	-207
ood	-208
ive	-209
▁may	-210
▁this	-211
▁ahh	-212
ies	-213
▁up	-214
▁when	-215
▁C	-216
ind	-217
▁who	-218
ig	-219
▁their	-220
▁com	-221
▁tr	-222
ain	-223
ck	-224
▁B	-225
▁go	-226
▁maybe	-227
▁one	-228
very	-229
▁le	-230
ack	-231
ity	-232
all	-233
▁why	-234
nt	-235
ound	-236
▁P	-237
our	-238
ie	-239
and	-240
res	-241
▁then	-242
▁pl	-243
ame	-244
▁kn	-245
ong	-246
ous	-247
▁somet	-248
fe	-249
▁D	-250
▁Hmm	-251
▁fe	-252
▁any	-253
▁us	-254
her	-255
ci	-256
▁more	-257
ast	-258
▁no	-259
▁tim	-260
▁now	-261
act	-262
▁The	-263
▁co	-264
▁something	-265
▁ye	-266
ans	-267
▁by	-268
ort	-269
▁thing	-270
pl	-271
kes	-272
▁had	-273
are	-274
▁know	-275
ice	-276
ine	-277
ich	-278
▁te	-279
ose	-280
▁could	-281
iv	-282
▁don	-283
▁did	-284
ite	-285
way	-286
ard	-287
▁there	-288
ide	-289
▁int	-290
▁un	-291
▁time	-292
▁oth	-293
▁N	-294
end	-295
▁cl	-296
▁her	-297
od	-298
▁Y	-299
per	-300
ure	-301
▁1	-302
▁(	-303
▁every	-304
▁she	-305
ick	-306
pt	-307
iz	-308
▁G	-309
▁E	-310
▁F	-311
▁being	-312
ough	-313
▁sa	-314
▁his	-315
▁were	-316
▁di	-317
▁pr	-318
ook	-319
▁act	-320
eddit	-321
▁has	-322
▁ta	-323
ep	-324
▁qu	-325
ars	-326
▁need	-327
▁ar	-328
ment	-329
▁lo	-330
so	-331
▁Th	-332
▁make	-333
▁Reddit	-334
▁ev	-335
...	-336
ass	-337
▁say	-338
▁makes	-339
▁got	-340
▁want	-341
ag	-342
▁en	-343
ence	-344
▁will	-345
▁too	-346
ting	-347
ions	-348
ry	-349
ble	-350
▁ad	-351
▁gu	-352
ah	-353
▁pre	-354
▁If	-355
▁L	-356
ect	-357
ious	-358
▁way	-359
ip	-360
▁sp	-361
av	-362
▁mo	-363
▁than	-364
▁man	-365
ud	-366
ace	-367
▁good	-368
ue	-369
own	-370
reat	-371
▁ag	-372
▁which	-373
▁most	-374
age	-375
▁2	-376
▁over	-377
▁other	-378
▁O	-379
▁work	-380
▁him	-381
able	-382
▁someone	-383
▁off	-384
▁It	-385
ually	-386
▁does	-387
▁feel	-388
▁comp	-389
▁pers	-390
riend	-391
▁im	-392
ome	-393
▁life	-394
▁You	-395
ish	-396
ang	-397
elf	-398
▁inter	-399
ving	-400
▁into	-401
ying	-402
▁see	-403
00	-404
▁spe	-405
▁really	-406
if	-407
ought	-408
ire	-409
ated	-410
▁back	-411
ade	-412
▁been	-413
▁start	-414
fter	-415
▁where	-416
ense	-417
ably	-418
ile	-419
▁day	-420
▁cont	-421
▁sc	-422
▁cons	-423
▁person	-424
ty	-425
elp	-426
ach	-427
▁dis	-428
▁real	-429
▁also	-430
▁ac	-431
uck	-432
ical	-433
ob	-434
▁happ	-435
ors	-436
▁fl	-437
ress	-438
ens	-439
oss	-440
bably	-441
▁red	-442
▁help	-443
▁gr	-444
ory	-445
▁still	-446
ap	-447
ber	-448
▁bl	-449
▁J	-450
▁bet	-451
▁res	-452
ool	-453
▁""	-454
wn	-455
irst	-456
ree	-457
ult	-458
▁am	-459
▁Aha	-460
▁after	-461
ance	-462
▁sm	-463
▁mu	-464
▁might	-465
ount	-466
▁How	-467
▁probably	-468
▁friend	-469
og	-470
ond	-471
▁ph	-472
▁rel	-473
▁comm	-474
ak	-475
thing	-476
▁thought	-477
ater	-478
▁much	-479
ild	-480
▁even	-481
▁first	-482
▁em	-483
orm	-484
▁per	-485
▁po	-486
▁ro	-487
▁should	-488
ffer	-489
ways	-490
ru	-491
fore	-492
ations	-493
▁use	-494
▁down	-495
▁thinking	-496
▁its	-497
atch	-498
igh	-499
ily	-500
ider	-501
▁play	-502
other	-503
▁things	-504
ys	-505
▁U	-506
▁seem	-507
▁sense	-508
ase	-509
▁thr	-510
int	-511
▁rem	-512
▁bu	-513
▁always	-514
we	-515
gg	-516
▁har	-517
ful	-518
▁-	-519
""	-520
ia	-521
▁br	-522
▁our	-523
▁new	-524
▁ke	-525
▁again	-526
▁made	-527
▁el	-528
▁und	-529
▁part	-530
▁hum	-531
▁differ	-532
▁years	-533
ten	-534
▁cr	-535
▁right	-536
▁ahha	-537
ating	-538
ks	-539
▁che	-540
▁before	-541
▁sound	-542
▁find	-543
urn	-544
ath	-545
de	-546
▁show	-547
oc	-548
▁mov	-549
ual	-550
▁consider	-551
▁own	-552
▁ca	-553
ird	-554
▁la	-555
▁app	-556
▁going	-557
▁those	-558
▁inst	-559
ents	-560
▁look	-561
▁dr	-562
red	-563
▁never	-564
▁actually	-565
ft	-566
ons	-567
▁reddit	-568
ict	-569
▁kid	-570
▁best	-571
▁only	-572
▁He	-573
▁att	-574
▁ever	-575
xt	-576
▁didn	-577
▁kind	-578
ign	-579
▁des	-580
▁let	-581
ces	-582
▁take	-583
read	-584
oy	-585
▁else	-586
oth	-587
▁old	-588
ary	-589
ves	-590
ial	-591
ible	-592
▁sim	-593
▁call	-594
ub	-595
▁tw	-596
self	-597
cial	-598
▁said	-599
cess	-600
▁3	-601
▁long	-602
ved	-603
pect	-604
▁fun	-605
▁through	-606
▁imp	-607
▁without	-608
▁around	-609
vers	-610
ell	-611
▁fam	-612
▁better	-613
▁lot	-614
▁rec	-615
tle	-616
▁wr	-617
▁pret	-618
▁exper	-619
vel	-620
les	-621
▁K	-622
▁used	-623
▁tra	-624
ark	-625
▁str	-626
▁trying	-627
▁different	-628
▁car	-629
ning	-630
ps	-631
▁haha	-632
▁mom	-633
▁sch	-634
▁ser	-635
▁tal	-636
ave	-637
▁My	-638
▁happen	-639
▁char	-640
uc	-641
ise	-642
te	-643
▁gen	-644
▁same	-645
ics	-646
▁world	-647
▁inc	-648
na	-649
▁song	-650
▁food	-651
▁means	-652
ically	-653
irl	-654
get	-655
ody	-656
▁sl	-657
▁high	-658
ne	-659
oney	-660
▁big	-661
ord	-662
▁while	-663
▁ask	-664
▁stu	-665
ail	-666
arent	-667
▁lit	-668
▁expl	-669
ib	-670
ange	-671
ny	-672
ead	-673
▁weird	-674
▁many	-675
▁must	-676
▁doesn	-677
▁inv	-678
▁end	-679
▁hand	-680
▁bad	-681
ower	-682
▁often	-683
▁hmmm	-684
▁pretty	-685
▁interest	-686
ple	-687
▁getting	-688
▁inf	-689
▁count	-690
▁ob	-691
▁sur	-692
▁dec	-693
▁sec	-694
ather	-695
iss	-696
▁yeah	-697
▁cre	-698
▁ins	-699
▁ass	-700
ize	-701
▁mus	-702
▁put	-703
its	-704
▁school	-705
▁sk	-706
ness	-707
▁likely	-708
ward	-709
▁op	-710
▁love	-711
eric	-712
▁col	-713
▁experi	-714
ian	-715
▁acc	-716
▁fav	-717
▁In	-718
▁tell	-719
▁everyone	-720
▁quest	-721
▁very	-722
▁mean	-723
▁money	-724
▁pol	-725
wh	-726
ert	-727
ash	-728
▁sit	-729
▁gra	-730
▁sy	-731
▁cho	-732
▁tri	-733
ng	-734
ouse	-735
▁hard	-736
▁cle	-737
▁great	-738
▁girl	-739
▁making	-740
lect	-741
▁poss	-742
als	-743
▁Why	-744
▁year	-745
▁St	-746
▁People	-747
▁game	-748
▁sub	-749
▁child	-750
▁anything	-751
▁wa	-752
▁job	-753
▁free	-754
ities	-755
▁Ch	-756
ters	-757
ings	-758
▁guy	-759
▁well	-760
▁bel	-761
ates	-762
▁We	-763
▁word	-764
▁supp	-765
▁5	-766
ull	-767
▁name	-768
▁min	-769
▁dri	-770
▁keep	-771
old	-772
▁sounds	-773
▁bra	-774
▁ide	-775
ffect	-776
ph	-777
▁friends	-778
▁two	-779
▁They	-780
ional	-781
▁def	-782
▁try	-783
ven	-784
▁doing	-785
▁comple	-786
▁care	-787
▁movie	-788
day	-789
▁20	-790
▁aw	-791
▁away	-792
ames	-793
alth	-794
cept	-795
▁med	-796
▁giv	-797
ember	-798
ock	-799
▁seems	-800
hip	-801
ms	-802
▁mon	-803
▁give	-804
▁watch	-805
▁others	-806
▁ent	-807
li	-808
▁home	-809
▁class	-810
▁When	-811
ular	-812
▁turn	-813
▁V	-814
▁instead	-815
▁bas	-816
com	-817
▁water	-818
▁last	-819
orn	-820
▁ear	-821
▁family	-822
▁Am	-823
▁here	-824
▁human	-825
▁bo	-826
▁mem	-827
▁add	-828
▁point	-829
ts	-830
▁pay	-831
▁enough	-832
▁favor	-833
▁wal	-834
▁eas	-835
▁,	-836
ump	-837
ized	-838
ream	-839
▁remember	-840
▁stop	-841
▁So	-842
less	-843
▁bre	-844
▁parent	-845
▁fin	-846
ilar	-847
▁rep	-848
▁having	-849
▁shit	-850
▁come	-851
▁stuff	-852
ason	-853
▁music	-854
▁bit	-855
ince	-856
ew	-857
▁sure	-858
olog	-859
▁wom	-860
▁read	-861
▁under	-862
▁seen	-863
▁story	-864
▁sha	-865
▁cur	-866
▁And	-867
▁less	-868
▁ty	-869
▁head	-870
ility	-871
▁house	-872
ention	-873
ready	-874
ope	-875
ever	-876
▁already	-877
▁reg	-878
▁lear	-879
▁live	-880
ute	-881
erst	-882
▁little	-883
▁another	-884
ism	-885
▁ext	-886
▁jo	-887
▁hour	-888
ract	-889
ix	-890
▁4	-891
enc	-892
▁favorite	-893
▁lead	-894
▁wouldn	-895
▁hu	-896
atter	-897
▁aah	-898
▁war	-899
▁resp	-900
▁found	-901
ee	-902
▁few	-903
co	-904
▁night	-905
ooking	-906
▁met	-907
▁charac	-908
▁fo	-909
led	-910
▁kill	-911
▁[	-912
ake	-913
ative	-914
▁ter	-915
▁exp	-916
▁kids	-917
ures	-918
▁gl	-919
▁left	-920
▁went	-921
▁place	-922
ont	-923
erious	-924
▁next	-925
▁Do	-926
▁That	-927
▁everything	-928
▁mind	-929
ger	-930
lic	-931
▁guess	-932
ime	-933
▁run	-934
▁small	-935
▁'	-936
▁anyone	-937
leep	-938
▁belie	-939
▁wee	-940
uring	-941
▁cra	-942
aring	-943
▁isn	-944
ject	-945
▁power	-946
▁super	-947
▁creat	-948
▁$	-949
▁pa	-950
▁ind	-951
▁considering	-952
ets	-953
ank	-954
▁post	-955
▁pop	-956
▁sign	-957
ale	-958
▁uni	-959
▁told	-960
▁change	-961
▁fact	-962
ident	-963
▁question	-964
▁similar	-965
▁underst	-966
man	-967
rect	-968
ta	-969
▁As	-970
ues	-971
▁Be	-972
▁started	-973
▁conf	-974
gs	-975
▁eat	-976
▁both	-977
▁parents	-978
▁vide	-979
fect	-980
▁adv	-981
▁ref	-982
▁Americ	-983
▁list	-984
line	-985
ins	-986
▁dist	-987
▁plan	-988
▁But	-989
ety	-990
du	-991
▁each	-992
ote	-993
ret	-994
ren	-995
az	-996
▁experience	-997
▁rest	-998
ern	-999
▁interesting	-1000
▁such	-1001
▁requ	-1002
▁stud	-1003
ists	-1004
ugh	-1005
▁gets	-1006
der	-1007
▁book	-1008
▁understand	-1009
ner	-1010
▁She	-1011
sw	-1012
▁Al	-1013
▁pass	-1014
▁pres	-1015
▁gener	-1016
▁social	-1017
umb	-1018
."	-1019
ush	-1020
how	-1021
▁myself	-1022
▁idea	-1023
onder	-1024
▁10	-1025
▁sex	-1026
▁iss	-1027
▁possible	-1028
▁Is	-1029
up	-1030
▁This	-1031
▁done	-1032
▁av	-1033
▁times	-1034
▁happened	-1035
▁room	-1036
▁bec	-1037
dd	-1038
▁these	-1039
▁mod	-1040
▁mar	-1041
ats	-1042
ited	-1043
nect	-1044
ling	-1045
▁health	-1046
▁anim	-1047
▁self	-1048
▁proble	-1049
▁fuck	-1050
▁country	-1051
ines	-1052
▁contro	-1053
ween	-1054
).	-1055
▁cou	-1056
stem	-1057
ear	-1058
air	-1059
▁emot	-1060
▁month	-1061
ows	-1062
▁unt	-1063
▁answ	-1064
▁et	-1065
▁body	-1066
▁sw	-1067
▁open	-1068
▁yet	-1069
▁hist	-1070
ality	-1071
Serious	-1072
inite	-1073
▁deal	-1074
▁between	-1075
▁reason	-1076
▁since	-1077
▁using	-1078
iting	-1079
ories	-1080
gr	-1081
▁cor	-1082
▁wrong	-1083
▁exact	-1084
io	-1085
▁drink	-1086
ife	-1087
ier	-1088
▁US	-1089
imes	-1090
▁stand	-1091
▁learn	-1092
▁talk	-1093
zy	-1094
ublic	-1095
ied	-1096
erg	-1097
▁pot	-1098
▁es	-1099
▁There	-1100
▁etc	-1101
iew	-1102
▁val	-1103
▁chang	-1104
▁toget	-1105
▁sleep	-1106
▁worth	-1107
▁together	-1108
br	-1109
bs	-1110
▁called	-1111
▁set	-1112
▁system	-1113
▁gotta	-1114
▁ed	-1115
▁nat	-1116
▁sing	-1117
▁connect	-1118
uss	-1119
vious	-1120
▁Ah	-1121
aw	-1122
▁due	-1123
▁phys	-1124
▁explain	-1125
ced	-1126
me	-1127
iness	-1128
ired	-1129
unch	-1130
▁once	-1131
▁looking	-1132
▁pain	-1133
itch	-1134
▁situ	-1135
llow	-1136
idd	-1137
▁commun	-1138
▁brain	-1139
▁form	-1140
▁until	-1141
▁wonder	-1142
▁able	-1143
no	-1144
▁Can	-1145
▁wasn	-1146
▁saying	-1147
▁during	-1148
▁dad	-1149
ences	-1150
▁face	-1151
ition	-1152
ately	-1153
▁break	-1154
ific	-1155
▁norm	-1156
000	-1157
arch	-1158
oid	-1159
▁ey	-1160
▁worst	-1161
ric	-1162
▁says	-1163
▁trans	-1164
▁stay	-1165
▁top	-1166
ex	-1167
ants	-1168
▁light	-1169
▁won	-1170
▁far	-1171
▁nice	-1172
▁cool	-1173
▁law	-1174
▁prof	-1175
▁9	-1176
▁6	-1177
▁came	-1178
▁strong	-1179
▁choose	-1180
ork	-1181
osed	-1182
▁days	-1183
ices	-1184
▁moment	-1185
ural	-1186
▁rather	-1187
ken	-1188
▁sol	-1189
▁Who	-1190
▁hit	-1191
▁move	-1192
ene	-1193
ude	-1194
▁hours	-1195
▁intern	-1196
ertain	-1197
▁anyway	-1198
▁heard	-1199
▁bus	-1200
ction	-1201
initely	-1202
▁Not	-1203
▁pri	-1204
where	-1205
ggest	-1206
ped	-1207
ffic	-1208
▁yourself	-1209
tern	-1210
▁fre	-1211
fort	-1212
▁relations	-1213
▁z	-1214
▁compan	-1215
▁past	-1216
▁tech	-1217
▁cult	-1218
▁character	-1219
▁answer	-1220
▁exactly	-1221
▁suggest	-1222
▁whole	-1223
▁imm	-1224
▁art	-1225
▁mess	-1226
▁common	-1227
ted	-1228
side	-1229
▁perfect	-1230
▁death	-1231
▁saw	-1232
ments	-1233
▁pe	-1234
▁against	-1235
▁usually	-1236
▁mil	-1237
que	-1238
▁comes	-1239
▁video	-1240
used	-1241
ient	-1242
▁relationship	-1243
▁leg	-1244
und	-1245
▁side	-1246
▁swe	-1247
▁produ	-1248
▁wanted	-1249
▁men	-1250
ills	-1251
▁fil	-1252
▁asked	-1253
▁games	-1254
ries	-1255
▁buy	-1256
▁expect	-1257
▁online	-1258
pr	-1259
▁dep	-1260
▁later	-1261
ior	-1262
▁dra	-1263
gn	-1264
▁prop	-1265
▁somehow	-1266
▁second	-1267
app	-1268
sel	-1269
▁talking	-1270
cif	-1271
▁id	-1272
▁disc	-1273
▁effect	-1274
amp	-1275
▁pick	-1276
▁phone	-1277
most	-1278
ones	-1279
▁hur	-1280
▁invol	-1281
▁public	-1282
▁definitely	-1283
20	-1284
▁vis	-1285
▁believe	-1286
▁nothing	-1287
▁No	-1288
▁prot	-1289
▁exist	-1290
bo	-1291
▁known	-1292
▁react	-1293
▁mor	-1294
▁Which	-1295
▁words	-1296
▁soci	-1297
not	-1298
▁though	-1299
▁hot	-1300
ese	-1301
ma	-1302
rent	-1303
▁vi	-1304
▁aut	-1305
▁ret	-1306
lling	-1307
▁fight	-1308
▁eng	-1309
ried	-1310
▁control	-1311
▁?	-1312
▁cal	-1313
▁foc	-1314
▁young	-1315
▁black	-1316
▁pur	-1317
▁air	-1318
▁complete	-1319
▁grand	-1320
▁prov	-1321
",	-1322
▁living	-1323
room	-1324
▁history	-1325
▁full	-1326
▁women	-1327
▁loc	-1328
▁stru	-1329
▁took	-1330
▁walk	-1331
▁kinda	-1332
▁taking	-1333
▁ve	-1334
▁space	-1335
▁det	-1336
ption	-1337
▁true	-1338
▁state	-1339
▁abs	-1340
▁ones	-1341
friend	-1342
ipp	-1343
angu	-1344
▁opp	-1345
ron	-1346
▁da	-1347
oke	-1348
ots	-1349
▁funny	-1350
form	-1351
ution	-1352
body	-1353
ane	-1354
▁given	-1355
pend	-1356
▁bro	-1357
▁leave	-1358
▁non	-1359
▁Tr	-1360
▁specif	-1361
oud	-1362
utes	-1363
▁humans	-1364
con	-1365
wards	-1366
▁For	-1367
▁ago	-1368
▁dog	-1369
selves	-1370
▁grou	-1371
cri	-1372
▁conc	-1373
▁langu	-1374
plies	-1375
▁bed	-1376
▁check	-1377
▁quick	-1378
ucking	-1379
▁listen	-1380
▁ap	-1381
▁guys	-1382
▁become	-1383
tt	-1384
▁cut	-1385
onna	-1386
aking	-1387
els	-1388
▁win	-1389
▁build	-1390
▁laugh	-1391
▁equ	-1392
▁hold	-1393
▁Redditors	-1394
▁affect	-1395
arr	-1396
▁typ	-1397
▁needs	-1398
owing	-1399
▁8	-1400
▁happy	-1401
ither	-1402
aces	-1403
land	-1404
▁fit	-1405
▁gre	-1406
▁die	-1407
▁support	-1408
▁situation	-1409
▁realize	-1410
▁store	-1411
ages	-1412
▁playing	-1413
▁cop	-1414
▁fall	-1415
ental	-1416
▁mas	-1417
".	-1418
▁aren	-1419
▁wait	-1420
▁tast	-1421
▁miss	-1422
ians	-1423
sh	-1424
▁7	-1425
▁stra	-1426
▁dream	-1427
▁direct	-1428
▁personal	-1429
▁hor	-1430
▁hair	-1431
▁wish	-1432
fer	-1433
▁elect	-1434
▁fore	-1435
lish	-1436
▁cha	-1437
▁outside	-1438
▁entire	-1439
▁par	-1440
ology	-1441
▁hate	-1442
▁sometimes	-1443
),	-1444
▁clear	-1445
by	-1446
▁sal	-1447
▁working	-1448
▁avoid	-1449
▁cause	-1450
to	-1451
itive	-1452
vern	-1453
rist	-1454
cially	-1455
gan	-1456
ently	-1457
the	-1458
ole	-1459
▁beha	-1460
▁clean	-1461
ught	-1462
▁sn	-1463
▁movies	-1464
▁complex	-1465
▁feeling	-1466
unk	-1467
▁dead	-1468
▁const	-1469
▁follow	-1470
▁cost	-1471
iest	-1472
▁fire	-1473
ined	-1474
▁stuck	-1475
▁sho	-1476
▁opin	-1477
elt	-1478
▁exam	-1479
▁lost	-1480
▁today	-1481
▁current	-1482
▁spend	-1483
▁create	-1484
▁matter	-1485
▁test	-1486
▁rid	-1487
▁inside	-1488
▁lar	-1489
▁cat	-1490
alf	-1491
antly	-1492
cle	-1493
like	-1494
▁gonna	-1495
▁realized	-1496
▁incl	-1497
▁obvious	-1498
▁week	-1499
▁event	-1500
▁almost	-1501
▁near	-1502
▁assum	-1503
▁physical	-1504
▁problem	-1505
▁techn	-1506
▁close	-1507
▁serious	-1508
▁cour	-1509
▁pos	-1510
▁ste	-1511
lease	-1512
ational	-1513
ially	-1514
▁least	-1515
ential	-1516
ax	-1517
ik	-1518
illion	-1519
▁exc	-1520
▁Just	-1521
▁fig	-1522
▁harm	-1523
▁prom	-1524
▁dark	-1525
▁colle	-1526
▁beh	-1527
▁minutes	-1528
▁treat	-1529
▁bring	-1530
▁normal	-1531
▁enj	-1532
▁door	-1533
ivid	-1534
▁single	-1535
▁import	-1536
▁mis	-1537
▁wife	-1538
ike	-1539
▁level	-1540
▁asking	-1541
▁De	-1542
ensive	-1543
▁implies	-1544
▁issues	-1545
▁stre	-1546
▁age	-1547
▁teac	-1548
▁Edit	-1549
▁To	-1550
▁hear	-1551
ised	-1552
▁case	-1553
▁fucking	-1554
ination	-1555
▁alone	-1556
▁themselves	-1557
ove	-1558
▁focus	-1559
umber	-1560
▁front	-1561
cc	-1562
▁behav	-1563
▁huge	-1564
▁inform	-1565
pid	-1566
▁Any	-1567
ased	-1568
acy	-1569
▁months	-1570
▁process	-1571
▁govern	-1572
▁knew	-1573
▁polit	-1574
▁dam	-1575
▁language	-1576
inal	-1577
▁internet	-1578
▁sci	-1579
ips	-1580
▁crazy	-1581
ives	-1582
ital	-1583
▁behind	-1584
▁del	-1585
▁easy	-1586
▁/	-1587
▁pull	-1588
▁eating	-1589
ww	-1590
▁short	-1591
▁pie	-1592
ases	-1593
▁content	-1594
▁sent	-1595
▁100	-1596
oun	-1597
▁thoughts	-1598
rit	-1599
▁felt	-1600
▁ru	-1601
▁unique	-1602
iddle	-1603
dden	-1604
▁line	-1605
▁wind	-1606
▁certain	-1607
▁sudden	-1608
▁popular	-1609
▁Sh	-1610
▁surv	-1611
ides	-1612
▁attention	-1613
▁stupid	-1614
▁Don	-1615
andom	-1616
▁lim	-1617
▁low	-1618
outh	-1619
ator	-1620
▁woman	-1621
pecially	-1622
vice	-1623
ires	-1624
ube	-1625
▁key	-1626
▁sil	-1627
▁19	-1628
▁related	-1629
▁type	-1630
▁attract	-1631
onest	-1632
▁bab	-1633
ploy	-1634
▁cover	-1635
▁Re	-1636
▁land	-1637
?"	-1638
yle	-1639
▁shows	-1640
▁order	-1641
verse	-1642
▁cust	-1643
▁goes	-1644
ister	-1645
▁bar	-1646
▁police	-1647
▁yes	-1648
▁wear	-1649
hood	-1650
▁mass	-1651
more	-1652
▁college	-1653
▁dem	-1654
ression	-1655
▁media	-1656
▁Un	-1657
▁ok	-1658
▁One	-1659
vent	-1660
▁Then	-1661
reme	-1662
anc	-1663
▁enjoy	-1664
▁product	-1665
▁tried	-1666
let	-1667
ards	-1668
velop	-1669
aha	-1670
ency	-1671
▁completely	-1672
▁On	-1673
▁fut	-1674
▁earth	-1675
▁special	-1676
▁mult	-1677
▁ce	-1678
▁smell	-1679
▁either	-1680
▁ra	-1681
▁comb	-1682
ining	-1683
▁company	-1684
icks	-1685
▁convers	-1686
▁simple	-1687
ift	-1688
irth	-1689
idence	-1690
▁half	-1691
haps	-1692
▁hurt	-1693
//	-1694
▁Your	-1695
▁doll	-1696
▁view	-1697
▁watching	-1698
▁white	-1699
acks	-1700
▁questions	-1701
sy	-1702
▁random	-1703
aut	-1704
naha	-1705
anger	-1706
▁mark	-1707
HA	-1708
leg	-1709
▁ach	-1710
▁item	-1711
ances	-1712
▁viol	-1713
▁Every	-1714
▁quite	-1715
▁An	-1716
▁group	-1717
▁three	-1718
▁text	-1719
ror	-1720
▁children	-1721
▁hom	-1722
omm	-1723
▁desp	-1724
ouch	-1725
▁Jo	-1726
▁hell	-1727
ature	-1728
▁looks	-1729
ared	-1730
▁mot	-1731
▁custom	-1732
▁slow	-1733
row	-1734
▁allow	-1735
▁behavior	-1736
▁heart	-1737
▁Also	-1738
▁develop	-1739
▁ant	-1740
edi	-1741
▁bur	-1742
▁couldn	-1743
▁accept	-1744
▁account	-1745
://	-1746
▁happens	-1747
atic	-1748
....	-1749
▁arm	-1750
soci	-1751
▁gun	-1752
gic	-1753
▁TV	-1754
▁sort	-1755
▁number	-1756
aster	-1757
▁pat	-1758
▁important	-1759
oring	-1760
▁bot	-1761
▁gave	-1762
▁comput	-1763
▁business	-1764
▁drop	-1765
ergy	-1766
ustr	-1767
▁meet	-1768
▁government	-1769
nA	-1770
▁coming	-1771
▁rac	-1772
da	-1773
▁strugg	-1774
▁advice	-1775
▁figure	-1776
▁adult	-1777
▁activ	-1778
onse	-1779
aur	-1780
▁htt	-1781
▁travel	-1782
ping	-1783
lo	-1784
▁wants	-1785
▁especially	-1786
▁flav	-1787
▁skills	-1788
ield	-1789
▁specific	-1790
▁pict	-1791
▁drive	-1792
▁repl	-1793
!!	-1794
bit	-1795
▁future	-1796
▁choice	-1797
▁party	-1798
▁mother	-1799
▁individ	-1800
ival	-1801
▁middle	-1802
▁orig	-1803
▁liter	-1804
▁eyes	-1805
▁emotional	-1806
▁fem	-1807
ived	-1808
ibly	-1809
▁fast	-1810
▁protect	-1811
omb	-1812
reddit	-1813
▁large	-1814
▁works	-1815
▁hands	-1816
▁maj	-1817
▁skin	-1818
▁Some	-1819
▁joke	-1820
▁birth	-1821
▁hy	-1822
▁extreme	-1823
eless	-1824
izz	-1825
▁design	-1826
▁scre	-1827
oph	-1828
▁tot	-1829
cer	-1830
▁compl	-1831
▁dru	-1832
▁$1	-1833
▁boy	-1834
ulation	-1835
▁dest	-1836
▁animal	-1837
▁associ	-1838
▁provide	-1839
▁ahaha	-1840
▁perhaps	-1841
▁heav	-1842
▁speak	-1843
lu	-1844
ina	-1845
irt	-1846
▁anymore	-1847
▁starts	-1848
ouble	-1849
▁includ	-1850
▁mental	-1851
▁Trump	-1852
▁lives	-1853
▁considered	-1854
istic	-1855
▁amount	-1856
▁city	-1857
osing	-1858
▁response	-1859
▁rock	-1860
▁teacher	-1861
▁vers	-1862
▁cannot	-1863
gle	-1864
ext	-1865
▁individual	-1866
▁tre	-1867
▁Christ	-1868
▁opinion	-1869
▁Sp	-1870
▁quickly	-1871
ison	-1872
▁comfort	-1873
ER	-1874
▁information	-1875
▁ways	-1876
eth	-1877
▁amaz	-1878
▁sca	-1879
▁despite	-1880
▁stories	-1881
lebr	-1882
▁safe	-1883
uce	-1884
▁deep	-1885
▁stress	-1886
▁ris	-1887
ked	-1888
▁energy	-1889
▁suggests	-1890
ledge	-1891
▁30	-1892
ided	-1893
▁invest	-1894
izing	-1895
▁pet	-1896
att	-1897
▁pract	-1898
▁secret	-1899
▁paper	-1900
▁All	-1901
aim	-1902
book	-1903
nah	-1904
▁needed	-1905
▁changed	-1906
ision	-1907
▁based	-1908
▁share	-1909
▁vo	-1910
▁died	-1911
ules	-1912
ged	-1913
▁news	-1914
▁profess	-1915
rib	-1916
ored	-1917
,000	-1918
▁countries	-1919
olute	-1920
▁community	-1921
▁supposed	-1922
ton	-1923
▁grow	-1924
lled	-1925
▁fail	-1926
▁imag	-1927
▁worked	-1928
▁proper	-1929
▁couple	-1930
kward	-1931
▁step	-1932
▁sweet	-1933
▁cook	-1934
amed	-1935
▁flo	-1936
▁ball	-1937
ering	-1938
▁blood	-1939
otes	-1940
port	-1941
▁songs	-1942
ze	-1943
ighb	-1944
ler	-1945
▁major	-1946
▁press	-1947
ams	-1948
▁doct	-1949
ify	-1950
▁suddenly	-1951
▁feels	-1952
imate	-1953
▁animals	-1954
▁mix	-1955
lying	-1956
ability	-1957
▁phr	-1958
▁descri	-1959
▁band	-1960
▁ident	-1961
▁Or	-1962
▁sym	-1963
▁American	-1964
▁celebr	-1965
▁ep	-1966
ources	-1967
▁box	-1968
▁running	-1969
▁cry	-1970
▁inde	-1971
▁turned	-1972
▁brother	-1973
▁catch	-1974
▁fix	-1975
▁straight	-1976
▁Eng	-1977
▁americ	-1978
▁sever	-1979
Wh	-1980
aving	-1981
▁At	-1982
▁Fr	-1983
▁rich	-1984
▁awkward	-1985
▁issue	-1986
gest	-1987
ball	-1988
▁suc	-1989
yr	-1990
▁cold	-1991
▁necess	-1992
▁worse	-1993
ney	-1994
▁er	-1995
▁prefer	-1996
▁.	-1997
▁neighb	-1998
▁honest	-1999
▁access	-2000
The	-2001
▁caus	-2002
▁morning	-2003
▁comment	-2004
work	-2005
▁touch	-2006
▁loud	-2007
orth	-2008
▁classic	-2009
▁gone	-2010
ging	-2011
ony	-2012
▁surpr	-2013
▁anno	-2014
▁towards	-2015
▁driving	-2016
▁cir	-2017
▁bath	-2018
ges	-2019
""?	-2020
iet	-2021
ann	-2022
ama	-2023
▁relig	-2024
▁teach	-2025
▁priv	-2026
ument	-2027
▁foot	-2028
erv	-2029
▁respons	-2030
▁\	-2031
iny	-2032
▁whatever	-2033
▁employ	-2034
▁area	-2035
▁local	-2036
sych	-2037
gin	-2038
▁speed	-2039
go	-2040
▁mention	-2041
▁society	-2042
▁deb	-2043
▁cap	-2044
▁hun	-2045
▁cent	-2046
▁books	-2047
▁smo	-2048
▁partic	-2049
lev	-2050
view	-2051
▁require	-2052
rible	-2053
▁culture	-2054
▁characters	-2055
▁girls	-2056
bed	-2057
▁af	-2058
hn	-2059
▁God	-2060
▁pen	-2061
▁giving	-2062
▁beaut	-2063
▁&	-2064
▁bag	-2065
▁anx	-2066
▁Q	-2067
mas	-2068
▁taste	-2069
▁longer	-2070
▁mine	-2071
▁natural	-2072
▁object	-2073
esome	-2074
▁fine	-2075
right	-2076
▁immedi	-2077
▁connection	-2078
▁sad	-2079
▁vac	-2080
mmer	-2081
▁2020	-2082
▁Pro	-2083
▁sat	-2084
ains	-2085
entially	-2086
▁absolute	-2087
▁god	-2088
▁multip	-2089
▁Bl	-2090
▁wall	-2091
ka	-2092
!"	-2093
▁example	-2094
▁road	-2095
▁notice	-2096
▁respect	-2097
▁film	-2098
▁lack	-2099
▁chance	-2100
arm	-2101
▁baby	-2102
▁takes	-2103
hol	-2104
▁played	-2105
▁poor	-2106
▁looked	-2107
▁15	-2108
▁Se	-2109
ili	-2110
aly	-2111
▁neg	-2112
▁wearing	-2113
for	-2114
-1	-2115
▁difference	-2116
▁helps	-2117
▁interact	-2118
▁caught	-2119
ky	-2120
▁send	-2121
▁bi	-2122
anks	-2123
ross	-2124
▁problems	-2125
▁tem	-2126
▁early	-2127
▁=	-2128
▁dig	-2129
▁var	-2130
▁sens	-2131
▁ign	-2132
▁finally	-2133
▁amazing	-2134
bing	-2135
▁cam	-2136
▁aff	-2137
▁hope	-2138
arth	-2139
▁knows	-2140
▁becom	-2141
▁style	-2142
▁sand	-2143
▁opt	-2144
▁collect	-2145
▁bal	-2146
ibility	-2147
▁taken	-2148
conom	-2149
▁incre	-2150
▁rad	-2151
▁walking	-2152
▁luck	-2153
▁expensive	-2154
▁Because	-2155
▁town	-2156
iction	-2157
▁annoying	-2158
iety	-2159
ered	-2160
▁obs	-2161
▁late	-2162
▁Z	-2163
▁okay	-2164
▁fill	-2165
▁seeing	-2166
▁link	-2167
▁:	-2168
ding	-2169
▁mist	-2170
▁reading	-2171
sa	-2172
▁claim	-2173
▁discuss	-2174
▁manag	-2175
▁lab	-2176
▁cheese	-2177
▁emotions	-2178
▁search	-2179
AA	-2180
▁older	-2181
▁weight	-2182
▁tax	-2183
▁card	-2184
▁main	-2185
▁names	-2186
lt	-2187
▁weeks	-2188
▁multiple	-2189
ray	-2190
▁Now	-2191
▁lose	-2192
▁phot	-2193
▁action	-2194
▁America	-2195
▁computer	-2196
▁din	-2197
gu	-2198
orts	-2199
▁course	-2200
▁occ	-2201
▁along	-2202
▁psych	-2203
▁intense	-2204
pes	-2205
▁Me	-2206
▁fing	-2207
ov	-2208
▁calm	-2209
▁Have	-2210
OU	-2211
▁AHA	-2212
▁creep	-2213
▁gold	-2214
▁save	-2215
ury	-2216
▁itself	-2217
▁sister	-2218
cks	-2219
▁ended	-2220
▁signific	-2221
▁correct	-2222
▁201	-2223
▁starting	-2224
▁appro	-2225
▁jud	-2226
▁tend	-2227
ization	-2228
▁cars	-2229
urity	-2230
▁stick	-2231
▁haven	-2232
ther	-2233
▁million	-2234
▁il	-2235
▁After	-2236
itary	-2237
▁scen	-2238
▁ground	-2239
▁involved	-2240
▁knowledge	-2241
▁easier	-2242
▁ice	-2243
astic	-2244
▁fair	-2245
▁easily	-2246
osp	-2247
onic	-2248
▁apart	-2249
etic	-2250
▁paid	-2251
▁shop	-2252
▁piece	-2253
▁chick	-2254
▁eye	-2255
.\	-2256
▁Le	-2257
▁rules	-2258
▁reality	-2259
▁accident	-2260
▁experiences	-2261
▁ess	-2262
pped	-2263
▁nature	-2264
IT	-2265
▁value	-2266
▁influ	-2267
play	-2268
▁ang	-2269
▁contact	-2270
▁regular	-2271
oting	-2272
legal	-2273
cl	-2274
▁conversation	-2275
▁trust	-2276
ault	-2277
ug	-2278
rest	-2279
▁squ	-2280
▁actual	-2281
▁girlfriend	-2282
edom	-2283
▁organ	-2284
gy	-2285
iced	-2286
ilities	-2287
▁env	-2288
▁rob	-2289
▁educ	-2290
▁econom	-2291
▁context	-2292
▁port	-2293
▁With	-2294
▁burn	-2295
▁cand	-2296
▁actions	-2297
▁hang	-2298
erc	-2299
▁bud	-2300
▁literally	-2301
▁father	-2302
rif	-2303
▁sell	-2304
▁condit	-2305
▁record	-2306
▁places	-2307
▁basically	-2308
ode	-2309
▁warm	-2310
▁phrase	-2311
▁scream	-2312
bers	-2313
▁meat	-2314
▁bene	-2315
▁finding	-2316
▁fear	-2317
▁conv	-2318
▁daily	-2319
▁rese	-2320
▁childhood	-2321
▁trad	-2322
▁impact	-2323
▁meaning	-2324
▁ther	-2325
▁rece	-2326
unt	-2327
▁sun	-2328
▁dumb	-2329
▁date	-2330
▁biggest	-2331
rove	-2332
ising	-2333
▁div	-2334
ulous	-2335
enced	-2336
erman	-2337
▁adm	-2338
oes	-2339
▁ali	-2340
▁contin	-2341
▁50	-2342
iding	-2343
iron	-2344
▁result	-2345
▁success	-2346
▁New	-2347
▁respond	-2348
gress	-2349
▁depend	-2350
▁refer	-2351
▁Are	-2352
▁awesome	-2353
xic	-2354
▁kept	-2355
▁coff	-2356
▁Ar	-2357
▁gives	-2358
▁mach	-2359
▁famous	-2360
▁Pl	-2361
▁modern	-2362
)?	-2363
aming	-2364
▁sus	-2365
▁quality	-2366
oogle	-2367
band	-2368
▁fat	-2369
▁12	-2370
ively	-2371
▁series	-2372
▁learned	-2373
izza	-2374
▁ble	-2375
▁feelings	-2376
▁tit	-2377
▁shot	-2378
▁general	-2379
aa	-2380
▁service	-2381
ium	-2382
▁size	-2383
▁freedom	-2384
▁across	-2385
ery	-2386
▁emb	-2387
fully	-2388
▁students	-2389
▁vir	-2390
▁Well	-2391
▁market	-2392
aling	-2393
▁offic	-2394
▁pun	-2395
▁sitting	-2396
▁lad	-2397
ement	-2398
resh	-2399
▁gas	-2400
▁understanding	-2401
omet	-2402
▁eff	-2403
▁medical	-2404
▁dogs	-2405
aked	-2406
▁within	-2407
▁decided	-2408
▁illegal	-2409
ails	-2410
▁fac	-2411
uth	-2412
▁grad	-2413
▁disco	-2414
▁smart	-2415
▁gay	-2416
▁subreddit	-2417
par	-2418
▁enc	-2419
ellig	-2420
Th	-2421
▁breat	-2422
▁handle	-2423
▁soft	-2424
▁recomm	-2425
▁forg	-2426
▁recommend	-2427
light	-2428
oof	-2429
▁cloth	-2430
▁cheap	-2431
▁pack	-2432
▁bathroom	-2433
▁Go	-2434
dy	-2435
▁environ	-2436
▁draw	-2437
▁dollars	-2438
por	-2439
▁loved	-2440
▁killed	-2441
▁init	-2442
▁fur	-2443
▁became	-2444
▁match	-2445
▁camp	-2446
ressed	-2447
▁Where	-2448
▁extra	-2449
▁voice	-2450
▁English	-2451
▁ur	-2452
▁immediately	-2453
▁write	-2454
▁purp	-2455
▁mouth	-2456
▁perspect	-2457
▁interested	-2458
▁term	-2459
▁toile	-2460
what	-2461
ald	-2462
▁feet	-2463
▁office	-2464
▁son	-2465
ruct	-2466
▁scene	-2467
▁hol	-2468
▁typically	-2469
urope	-2470
▁paying	-2471
▁prior	-2472
▁Would	-2473
▁pu	-2474
▁wake	-2475
zz	-2476
iant	-2477
▁forget	-2478
▁student	-2479
key	-2480
▁original	-2481
▁potential	-2482
▁return	-2483
ource	-2484
hel	-2485
▁remind	-2486
iful	-2487
▁thinks	-2488
aves	-2489
▁telling	-2490
▁pan	-2491
▁Br	-2492
▁cash	-2493
▁ridic	-2494
asons	-2495
▁technology	-2496
▁recall	-2497
▁eventually	-2498
▁legal	-2499
rop	-2500
▁dev	-2501
▁mater	-2502
▁team	-2503
raph	-2504
▁benef	-2505
▁Cl	-2506
▁relationships	-2507
▁ann	-2508
▁finan	-2509
▁learning	-2510
▁lock	-2511
allen	-2512
▁Mar	-2513
▁lol	-2514
▁Ex	-2515
▁sou	-2516
ilt	-2517
ises	-2518
▁color	-2519
▁drunk	-2520
▁Americans	-2521
▁glass	-2522
ech	-2523
▁ill	-2524
▁altern	-2525
▁ir	-2526
▁Sc	-2527
▁born	-2528
inc	-2529
▁lived	-2530
▁bul	-2531
▁married	-2532
▁drinking	-2533
redda	-2534
▁Man	-2535
ication	-2536
uit	-2537
▁soon	-2538
▁crit	-2539
▁building	-2540
▁cream	-2541
▁hide	-2542
ume	-2543
orry	-2544
▁egg	-2545
▁numb	-2546
ether	-2547
▁bought	-2548
▁led	-2549
ified	-2550
erm	-2551
hor	-2552
▁brand	-2553
▁stopped	-2554
▁president	-2555
▁rout	-2556
icy	-2557
pir	-2558
reci	-2559
▁wild	-2560
gar	-2561
▁memory	-2562
▁Hey	-2563
▁May	-2564
▁coffee	-2565
▁pizza	-2566
▁ability	-2567
▁Like	-2568
▁dont	-2569
▁cas	-2570
▁possibly	-2571
▁meant	-2572
ients	-2573
▁Earth	-2574
IN	-2575
iver	-2576
▁jump	-2577
set	-2578
▁18	-2579
▁fund	-2580
▁favour	-2581
▁restaur	-2582
▁clos	-2583
inking	-2584
▁appe	-2585
50	-2586
▁changes	-2587
▁allowed	-2588
▁resources	-2589
▁research	-2590
▁present	-2591
▁circ	-2592
▁doctor	-2593
▁ridiculous	-2594
▁jobs	-2595
asure	-2596
▁everywhere	-2597
time	-2598
▁star	-2599
inct	-2600
oon	-2601
▁moving	-2602
▁comments	-2603
▁coun	-2604
▁material	-2605
usband	-2606
▁stat	-2607
▁deg	-2608
▁intellig	-2609
▁anxiety	-2610
▁wood	-2611
▁force	-2612
▁flavor	-2613
icking	-2614
▁buying	-2615
▁reaction	-2616
▁military	-2617
▁ful	-2618
▁hosp	-2619
icious	-2620
▁associated	-2621
ughter	-2622
▁report	-2623
▁clothes	-2624
ata	-2625
ples	-2626
arently	-2627
▁perform	-2628
rel	-2629
cohol	-2630
▁spent	-2631
▁cow	-2632
apan	-2633
iday	-2634
▁Su	-2635
▁option	-2636
dom	-2637
cra	-2638
▁floor	-2639
▁repe	-2640
▁seemed	-2641
▁challen	-2642
▁lay	-2643
▁vol	-2644
▁roll	-2645
nAha	-2646
▁tom	-2647
owers	-2648
attern	-2649
▁dish	-2650
▁male	-2651
▁including	-2652
ids	-2653
▁writ	-2654
▁alive	-2655
▁distract	-2656
▁bat	-2657
▁http	-2658
▁diffic	-2659
do	-2660
▁beautiful	-2661
ogn	-2662
ym	-2663
▁wit	-2664
▁relax	-2665
▁fake	-2666
▁pattern	-2667
ground	-2668
eral	-2669
▁cart	-2670
▁esca	-2671
▁Ahh	-2672
▁webs	-2673
▁unlike	-2674
▁toilet	-2675
▁absolutely	-2676
erve	-2677
▁project	-2678
apt	-2679
uly	-2680
▁female	-2681
▁laws	-2682
▁sexual	-2683
arily	-2684
▁Fl	-2685
ators	-2686
▁boss	-2687
verage	-2688
▁afford	-2689
▁huh	-2690
▁waiting	-2691
▁mur	-2692
▁events	-2693
empt	-2694
▁concept	-2695
▁version	-2696
▁field	-2697
▁sick	-2698
▁seconds	-2699
ana	-2700
▁ele	-2701
▁dom	-2702
▁basic	-2703
▁metal	-2704
▁favourite	-2705
▁cell	-2706
▁X	-2707
chan	-2708
▁imagine	-2709
now	-2710
rew	-2711
▁prevent	-2712
cious	-2713
▁assume	-2714
nam	-2715
▁cru	-2716
arrass	-2717
▁environment	-2718
▁meth	-2719
▁moved	-2720
▁200	-2721
mming	-2722
▁forever	-2723
▁manage	-2724
▁himself	-2725
▁security	-2726
ocol	-2727
▁ideas	-2728
▁blue	-2729
oses	-2730
▁mostly	-2731
ivil	-2732
load	-2733
▁prep	-2734
▁tiny	-2735
OT	-2736
▁intro	-2737
over	-2738
ience	-2739
▁trouble	-2740
▁mic	-2741
▁disapp	-2742
▁street	-2743
▁tough	-2744
▁Get	-2745
▁putting	-2746
▁block	-2747
▁saf	-2748
▁attack	-2749
come	-2750
▁appreci	-2751
ished	-2752
▁users	-2753
ops	-2754
▁massive	-2755
▁requires	-2756
▁beer	-2757
▁please	-2758
▁fresh	-2759
▁univers	-2760
▁universe	-2761
▁John	-2762
▁vs	-2763
icked	-2764
▁creating	-2765
▁cy	-2766
ware	-2767
▁embarrass	-2768
▁threat	-2769
▁ran	-2770
▁items	-2771
▁bull	-2772
▁arg	-2773
▁ahsa	-2774
▁table	-2775
▁net	-2776
▁sold	-2777
▁Canad	-2778
vert	-2779
▁willing	-2780
▁nobody	-2781
▁science	-2782
▁birthday	-2783
▁grab	-2784
▁worry	-2785
▁milk	-2786
▁concern	-2787
▁aware	-2788
▁redditors	-2789
▁spec	-2790
▁engine	-2791
▁named	-2792
ley	-2793
▁discover	-2794
▁tool	-2795
▁nut	-2796
▁except	-2797
▁Most	-2798
▁reach	-2799
▁wealth	-2800
ring	-2801
idden	-2802
▁prin	-2803
▁spot	-2804
bum	-2805
urance	-2806
iod	-2807
▁begin	-2808
▁husband	-2809
ograph	-2810
▁broke	-2811
wise	-2812
▁price	-2813
fend	-2814
▁pred	-2815
▁beat	-2816
ological	-2817
uine	-2818
iment	-2819
▁spread	-2820
▁somewhere	-2821
▁fish	-2822
▁Ne	-2823
oint	-2824
▁bunch	-2825
▁leaving	-2826
▁destro	-2827
▁oppos	-2828
ured	-2829
▁clever	-2830
▁gain	-2831
▁quiet	-2832
▁companies	-2833
cient	-2834
▁trip	-2835
ortun	-2836
▁shouldn	-2837
ned	-2838
www	-2839
bl	-2840
▁oil	-2841
▁stri	-2842
▁totally	-2843
▁bott	-2844
▁strang	-2845
▁avail	-2846
▁recogn	-2847
ites	-2848
▁tas	-2849
orld	-2850
ender	-2851
▁risk	-2852
▁evidence	-2853
af	-2854
▁lif	-2855
che	-2856
▁picture	-2857
▁ic	-2858
asing	-2859
▁dick	-2860
▁noise	-2861
iving	-2862
▁attractive	-2863
▁alcohol	-2864
▁neighbor	-2865
aced	-2866
▁helped	-2867
▁difficult	-2868
acking	-2869
▁potentially	-2870
▁doc	-2871
.)	-2872
▁memories	-2873
▁throw	-2874
▁90	-2875
▁safety	-2876
orrow	-2877
ees	-2878
▁truck	-2879
▁dude	-2880
??	-2881
hh	-2882
anna	-2883
akes	-2884
▁planet	-2885
ef	-2886
▁teeth	-2887
▁ult	-2888
mon	-2889
▁toxic	-2890
rupt	-2891
▁compet	-2892
▁indust	-2893
▁constantly	-2894
board	-2895
▁Yes	-2896
iliar	-2897
▁humor	-2898
▁commit	-2899
▁writing	-2900
▁seriously	-2901
▁24	-2902
▁gar	-2903
▁period	-2904
▁private	-2905
▁four	-2906
▁forgot	-2907
▁rare	-2908
▁unless	-2909
▁survive	-2910
itar	-2911
11	-2912
▁Ph	-2913
▁camer	-2914
▁damage	-2915
▁lots	-2916
▁role	-2917
▁lyr	-2918
anced	-2919
alk	-2920
▁Does	-2921
▁bill	-2922
▁knowing	-2923
▁attempt	-2924
▁repres	-2925
▁cats	-2926
▁effort	-2927
▁rain	-2928
▁heat	-2929
▁indeed	-2930
▁Mc	-2931
▁est	-2932
▁options	-2933
▁info	-2934
▁bird	-2935
▁maint	-2936
▁perspective	-2937
▁education	-2938
comfort	-2939
▁chicken	-2940
▁progr	-2941
▁causing	-2942
you	-2943
▁Christmas	-2944
▁dinner	-2945
▁piss	-2946
rench	-2947
▁struct	-2948
▁Ad	-2949
▁ahhaha	-2950
▁noticed	-2951
▁porn	-2952
▁purpose	-2953
icle	-2954
▁leading	-2955
▁videos	-2956
▁tick	-2957
▁activities	-2958
▁carry	-2959
▁bod	-2960
▁log	-2961
▁genuine	-2962
▁truly	-2963
▁directly	-2964
▁inj	-2965
une	-2966
▁gotten	-2967
▁plat	-2968
icate	-2969
▁younger	-2970
▁civil	-2971
▁positive	-2972
▁unlikely	-2973
▁loss	-2974
etal	-2975
▁epis	-2976
oty	-2977
▁happening	-2978
uff	-2979
▁rom	-2980
▁murder	-2981
tr	-2982
▁data	-2983
oub	-2984
riage	-2985
▁TH	-2986
▁rap	-2987
▁watched	-2988
▁strange	-2989
▁fan	-2990
▁tv	-2991
kn	-2992
▁Im	-2993
▁danger	-2994
▁clearly	-2995
sequ	-2996
▁lyrics	-2997
▁walked	-2998
▁hospital	-2999
ye	-3000
▁extremely	-3001
▁offer	-3002
▁available	-3003
pro	-3004
back	-3005
▁opportun	-3006
▁green	-3007
ox	-3008
▁bank	-3009
ivity	-3010
▁habit	-3011
▁push	-3012
ague	-3013
▁ple	-3014
▁chem	-3015
▁particular	-3016
▁weap	-3017
ades	-3018
▁peace	-3019
▁pressure	-3020
▁bread	-3021
▁financial	-3022
▁Did	-3023
▁perfectly	-3024
▁fits	-3025
▁strate	-3026
▁mechan	-3027
▁Tw	-3028
▁fredda	-3029
▁wed	-3030
ngth	-3031
urs	-3032
▁appear	-3033
emic	-3034
▁useful	-3035
__	-3036
craft	-3037
bol	-3038
▁hob	-3039
face	-3040
▁season	-3041
pper	-3042
▁frustr	-3043
▁Russ	-3044
▁drugs	-3045
lex	-3046
▁familiar	-3047
▁butter	-3048
▁parts	-3049
duc	-3050
▁crime	-3051
▁manip	-3052
▁ban	-3053
▁teen	-3054
▁reasons	-3055
▁suffer	-3056
care	-3057
▁mat	-3058
▁uses	-3059
▁Gu	-3060
otic	-3061
▁scenar	-3062
oms	-3063
▁heavy	-3064
▁der	-3065
▁created	-3066
▁truth	-3067
allow	-3068
wich	-3069
miss	-3070
▁vill	-3071
atures	-3072
▁flag	-3073
▁pants	-3074
ipped	-3075
▁remo	-3076
▁Ind	-3077
▁credit	-3078
▁Europe	-3079
▁Pr	-3080
▁caused	-3081
▁waste	-3082
▁therap	-3083
▁ton	-3084
▁album	-3085
▁terrible	-3086
▁depression	-3087
cul	-3088
▁separ	-3089
▁personality	-3090
lear	-3091
▁recently	-3092
▁broken	-3093
--	-3094
▁German	-3095
aper	-3096
▁cancer	-3097
▁Good	-3098
▁scient	-3099
een	-3100
▁code	-3101
▁tone	-3102
ests	-3103
asy	-3104
ils	-3105
▁leads	-3106
▁trick	-3107
omen	-3108
head	-3109
▁grade	-3110
▁cute	-3111
▁feed	-3112
▁brought	-3113
aries	-3114
▁meal	-3115
▁balance	-3116
▁several	-3117
▁x	-3118
arant	-3119
▁mid	-3120
▁rule	-3121
▁opposite	-3122
▁violence	-3123
eren	-3124
▁bother	-3125
▁becomes	-3126
▁window	-3127
▁message	-3128
▁significant	-3129
olution	-3130
▁speech	-3131
▁thread	-3132
▁lower	-3133
▁products	-3134
▁shut	-3135
▁switch	-3136
▁Che	-3137
▁histor	-3138
omp	-3139
▁partner	-3140
▁average	-3141
▁base	-3142
▁approach	-3143
▁title	-3144
ID	-3145
▁listening	-3146
ustral	-3147
▁emerg	-3148
▁screen	-3149
▁daughter	-3150
▁harder	-3151
urb	-3152
▁corn	-3153
ply	-3154
▁situations	-3155
▁healthy	-3156
▁subject	-3157
oted	-3158
▁terms	-3159
▁passed	-3160
▁pretend	-3161
▁tour	-3162
▁traffic	-3163
▁visit	-3164
▁higher	-3165
▁motiv	-3166
▁nu	-3167
itiz	-3168
▁Maybe	-3169
▁train	-3170
▁exerc	-3171
▁glob	-3172
▁wanna	-3173
▁members	-3174
▁setting	-3175
▁strength	-3176
ocolate	-3177
ocr	-3178
▁fell	-3179
cy	-3180
down	-3181
▁math	-3182
iling	-3183
▁charge	-3184
asc	-3185
▁dress	-3186
▁scared	-3187
▁creative	-3188
▁coll	-3189
▁losing	-3190
▁track	-3191
▁gift	-3192
ancy	-3193
▁ahah	-3194
▁trigg	-3195
▁park	-3196
▁scar	-3197
▁negative	-3198
ands	-3199
▁dise	-3200
aff	-3201
▁ing	-3202
ales	-3203
▁customer	-3204
▁aud	-3205
▁angry	-3206
▁gri	-3207
▁den	-3208
▁lady	-3209
▁Dis	-3210
ster	-3211
DIT	-3212
▁hidden	-3213
▁magic	-3214
rated	-3215
▁effective	-3216
▁40	-3217
▁previous	-3218
LL	-3219
iff	-3220
▁fu	-3221
nder	-3222
▁tar	-3223
▁generally	-3224
▁forward	-3225
▁mel	-3226
▁sandwich	-3227
▁grandma	-3228
▁remembered	-3229
▁experienced	-3230
▁CO	-3231
ounds	-3232
▁weren	-3233
▁usern	-3234
▁creepy	-3235
▁sauce	-3236
▁path	-3237
▁ju	-3238
▁interview	-3239
▁pand	-3240
uses	-3241
▁ho	-3242
▁dry	-3243
hmm	-3244
ral	-3245
aren	-3246
ration	-3247
othing	-3248
▁acha	-3249
▁regard	-3250
▁decent	-3251
▁escape	-3252
▁bigger	-3253
▁condition	-3254
ero	-3255
▁suit	-3256
▁areas	-3257
▁weirdest	-3258
gra	-3259
enn	-3260
▁lie	-3261
▁rights	-3262
▁fighting	-3263
▁vote	-3264
ux	-3265
ey	-3266
▁machine	-3267
▁pulled	-3268
▁ver	-3269
▁unex	-3270
▁shower	-3271
▁onto	-3272
You	-3273
airs	-3274
gers	-3275
fficient	-3276
▁states	-3277
thinking	-3278
▁anti	-3279
▁author	-3280
▁insurance	-3281
▁crow	-3282
10	-3283
▁Japan	-3284
▁stere	-3285
▁mir	-3286
▁suic	-3287
▁turns	-3288
irm	-3289
▁cooking	-3290
▁cultural	-3291
life	-3292
▁fucked	-3293
▁slowly	-3294
▁incred	-3295
▁crush	-3296
icated	-3297
▁*	-3298
▁odd	-3299
▁achie	-3300
▁quit	-3301
▁symbol	-3302
▁decision	-3303
▁unus	-3304
▁zomb	-3305
▁summer	-3306
bits	-3307
▁address	-3308
▁hop	-3309
▁shel	-3310
ables	-3311
▁consequ	-3312
▁connected	-3313
▁Oh	-3314
urch	-3315
▁powerful	-3316
▁promotes	-3317
▁comfortable	-3318
▁ment	-3319
▁App	-3320
wed	-3321
▁posts	-3322
cking	-3323
▁training	-3324
▁oper	-3325
▁workers	-3326
fs	-3327
▁simply	-3328
▁pictures	-3329
AR	-3330
idge	-3331
pected	-3332
▁complain	-3333
▁cops	-3334
▁therefore	-3335
▁trash	-3336
▁bac	-3337
▁weak	-3338
My	-3339
▁scr	-3340
▁mask	-3341
▁ring	-3342
▁boyfriend	-3343
▁plot	-3344
▁emp	-3345
▁holding	-3346
▁above	-3347
▁numbers	-3348
▁serv	-3349
▁players	-3350
▁moments	-3351
nds	-3352
▁quote	-3353
▁shoes	-3354
▁skill	-3355
▁express	-3356
▁0	-3357
▁taught	-3358
cut	-3359
▁Em	-3360
▁improve	-3361
▁rev	-3362
▁shape	-3363
▁kar	-3364
▁note	-3365
▁species	-3366
▁political	-3367
aging	-3368
▁user	-3369
▁rent	-3370
atives	-3371
▁likes	-3372
esus	-3373
pping	-3374
▁cross	-3375
ceed	-3376
▁dating	-3377
▁tips	-3378
▁witness	-3379
▁tree	-3380
▁wondering	-3381
▁standing	-3382
▁slight	-3383
▁politics	-3384
▁iron	-3385
▁suck	-3386
▁destroy	-3387
▁username	-3388
▁Was	-3389
▁shock	-3390
▁entertain	-3391
▁mad	-3392
▁frequ	-3393
gen	-3394
▁represent	-3395
▁missing	-3396
▁Star	-3397
▁Brit	-3398
▁poop	-3399
▁minim	-3400
▁comed	-3401
lls	-3402
▁marriage	-3403
bre	-3404
▁effects	-3405
▁growing	-3406
▁grew	-3407
▁agree	-3408
usion	-3409
▁drug	-3410
▁Somet	-3411
▁career	-3412
▁mm	-3413
▁80	-3414
▁iconic	-3415
atory	-3416
ishing	-3417
▁hero	-3418
▁vict	-3419
▁vacc	-3420
▁apparently	-3421
▁stereoty	-3422
▁SO	-3423
ios	-3424
▁reci	-3425
▁pregn	-3426
antic	-3427
▁source	-3428
▁differently	-3429
▁dy	-3430
▁War	-3431
▁Men	-3432
isf	-3433
▁bow	-3434
ception	-3435
▁lights	-3436
oles	-3437
▁Let	-3438
▁debt	-3439
▁tro	-3440
▁rele	-3441
▁minor	-3442
▁sleeping	-3443
▁position	-3444
▁five	-3445
▁restaurant	-3446
▁nost	-3447
▁unf	-3448
▁combination	-3449
▁everyday	-3450
▁legs	-3451
▁EDIT	-3452
▁chocolate	-3453
ossible	-3454
▁unusual	-3455
cast	-3456
▁instantly	-3457
▁wide	-3458
▁specifically	-3459
▁boo	-3460
raid	-3461
▁YouT	-3462
▁aaha	-3463
▁giant	-3464
▁celebrity	-3465
▁total	-3466
▁fa	-3467
▁consist	-3468
▁https	-3469
▁Ke	-3470
▁crowd	-3471
▁billion	-3472
▁equival	-3473
▁soul	-3474
▁liqu	-3475
▁method	-3476
▁capt	-3477
▁flight	-3478
▁hole	-3479
▁mag	-3480
ores	-3481
▁sports	-3482
hole	-3483
▁sharing	-3484
▁valu	-3485
ushing	-3486
▁minute	-3487
▁practice	-3488
▁pock	-3489
▁hits	-3490
▁Thanks	-3491
▁saving	-3492
val	-3493
▁letter	-3494
▁identity	-3495
ai	-3496
inated	-3497
▁inn	-3498
ST	-3499
▁asks	-3500
▁Con	-3501
▁necessary	-3502
▁alternative	-3503
▁ready	-3504
▁16	-3505
▁liked	-3506
▁flat	-3507
▁religion	-3508
▁Whats	-3509
▁spl	-3510
▁killing	-3511
levant	-3512
▁describe	-3513
▁ride	-3514
▁electric	-3515
▁otherwise	-3516
agn	-3517
▁lawy	-3518
▁groups	-3519
▁explains	-3520
▁fly	-3521
erson	-3522
known	-3523
▁owners	-3524
▁flu	-3525
▁individuals	-3526
▁sorry	-3527
▁scenario	-3528
▁rh	-3529
▁lines	-3530
ionally	-3531
▁theory	-3532
itchen	-3533
▁Those	-3534
▁afraid	-3535
host	-3536
▁edit	-3537
▁gaming	-3538
▁Har	-3539
▁Ob	-3540
▁upd	-3541
▁Car	-3542
▁involve	-3543
round	-3544
▁limited	-3545
▁wedding	-3546
▁written	-3547
▁affected	-3548
▁tur	-3549
▁subst	-3550
▁roo	-3551
▁narr	-3552
OO	-3553
▁shar	-3554
▁gender	-3555
▁China	-3556
▁tradit	-3557
gon	-3558
▁calling	-3559
▁host	-3560
▁punch	-3561
imately	-3562
ension	-3563
ening	-3564
▁evil	-3565
uclear	-3566
▁fol	-3567
irty	-3568
fl	-3569
▁faster	-3570
▁systems	-3571
▁damn	-3572
▁site	-3573
▁infect	-3574
▁platform	-3575
chool	-3576
▁necessarily	-3577
ulate	-3578
night	-3579
▁views	-3580
▁global	-3581
▁prison	-3582
rom	-3583
▁dying	-3584
▁population	-3585
▁mill	-3586
▁fans	-3587
ppy	-3588
▁fant	-3589
aws	-3590
oom	-3591
▁humanity	-3592
▁Ask	-3593
▁idi	-3594
▁temper	-3595
▁nostal	-3596
▁tired	-3597
▁professional	-3598
rum	-3599
icit	-3600
▁surprised	-3601
inese	-3602
▁page	-3603
sc	-3604
aged	-3605
▁pee	-3606
▁thous	-3607
▁ancient	-3608
▁following	-3609
▁100%	-3610
▁autom	-3611
▁Sm	-3612
▁equivalent	-3613
just	-3614
▁activity	-3615
▁solution	-3616
▁Te	-3617
ners	-3618
▁societal	-3619
my	-3620
▁Mic	-3621
▁Ste	-3622
gged	-3623
▁lunch	-3624
▁hiding	-3625
▁Dear	-3626
▁sne	-3627
rim	-3628
▁race	-3629
▁spir	-3630
erry	-3631
lets	-3632
▁blind	-3633
ruction	-3634
▁jokes	-3635
▁customers	-3636
▁tow	-3637
▁traum	-3638
▁empt	-3639
▁forced	-3640
▁reve	-3641
ictional	-3642
▁boring	-3643
▁silly	-3644
oura	-3645
▁degree	-3646
▁chaos	-3647
ON	-3648
▁abuse	-3649
▁opinions	-3650
▁upon	-3651
ING	-3652
▁falling	-3653
▁Probably	-3654
▁farm	-3655
▁impossible	-3656
▁fasc	-3657
▁roomm	-3658
?]	-3659
▁whe	-3660
▁driver	-3661
▁pandemic	-3662
▁scary	-3663
▁island	-3664
inate	-3665
▁religious	-3666
▁ut	-3667
▁asleep	-3668
▁manager	-3669
▁Even	-3670
▁currently	-3671
▁showed	-3672
▁shift	-3673
▁required	-3674
▁susp	-3675
▁built	-3676
▁mentioned	-3677
▁ten	-3678
▁target	-3679
▁showing	-3680
urally	-3681
▁nose	-3682
▁13	-3683
▁bitch	-3684
ief	-3685
▁ge	-3686
▁tooth	-3687
▁11	-3688
▁further	-3689
▁cast	-3690
▁plane	-3691
▁guitar	-3692
▁image	-3693
ened	-3694
▁twice	-3695
▁14	-3696
▁appreciate	-3697
▁keeps	-3698
isions	-3699
▁lazy	-3700
▁master	-3701
▁keeping	-3702
▁kitchen	-3703
▁Never	-3704
▁influence	-3705
nAh	-3706
▁features	-3707
▁rate	-3708
▁satisf	-3709
ays	-3710
▁Qu	-3711
ipping	-3712
▁Col	-3713
▁YouTube	-3714
▁bodies	-3715
▁pron	-3716
▁oce	-3717
lim	-3718
▁wash	-3719
▁values	-3720
▁smaller	-3721
▁Us	-3722
▁finger	-3723
▁25	-3724
▁thanks	-3725
ended	-3726
▁apartment	-3727
▁adapt	-3728
▁potat	-3729
▁gro	-3730
▁fingers	-3731
It	-3732
▁calls	-3733
▁decide	-3734
cent	-3735
cons	-3736
▁kiss	-3737
▁website	-3738
▁obviously	-3739
▁bottle	-3740
▁stock	-3741
▁changing	-3742
▁YOU	-3743
▁cases	-3744
order	-3745
▁club	-3746
▁seat	-3747
▁aliens	-3748
▁buck	-3749
▁points	-3750
▁regret	-3751
rast	-3752
▁historical	-3753
▁rub	-3754
▁dreams	-3755
▁bri	-3756
AN	-3757
▁load	-3758
▁honestly	-3759
orable	-3760
▁persona	-3761
▁costs	-3762
▁counter	-3763
ris	-3764
ius	-3765
▁attach	-3766
▁sugar	-3767
▁growth	-3768
▁generate	-3769
▁american	-3770
▁veh	-3771
▁chann	-3772
▁fictional	-3773
ait	-3774
pse	-3775
▁Austral	-3776
▁industry	-3777
▁third	-3778
▁uncomfort	-3779
▁Of	-3780
▁eggs	-3781
ancing	-3782
▁board	-3783
▁hearing	-3784
▁vibe	-3785
arents	-3786
▁foods	-3787
itation	-3788
▁weed	-3789
▁habits	-3790
pet	-3791
▁shoot	-3792
inating	-3793
▁woke	-3794
▁consequences	-3795
su	-3796
EE	-3797
▁subs	-3798
▁flash	-3799
off	-3800
▁oh	-3801
▁+	-3802
▁existence	-3803
▁Everyone	-3804
▁His	-3805
▁myster	-3806
▁relative	-3807
▁background	-3808
▁radio	-3809
▁Ye	-3810
▁grav	-3811
▁properly	-3812
mit	-3813
▁disp	-3814
▁bound	-3815
▁Please	-3816
▁je	-3817
▁teachers	-3818
▁sentence	-3819
▁...	-3820
icted	-3821
▁eth	-3822
ashion	-3823
▁services	-3824
▁study	-3825
▁World	-3826
▁thank	-3827
▁doub	-3828
▁moon	-3829
▁ingred	-3830
▁Google	-3831
▁unexpected	-3832
▁atm	-3833
▁bored	-3834
▁rough	-3835
▁surger	-3836
yal	-3837
What	-3838
▁UK	-3839
▁Pol	-3840
▁cous	-3841
▁standard	-3842
iped	-3843
▁innoc	-3844
▁perce	-3845
▁smile	-3846
▁expected	-3847
▁worried	-3848
▁anywhere	-3849
▁added	-3850
▁assuming	-3851
▁depends	-3852
▁reflect	-3853
amb	-3854
▁Canada	-3855
▁cake	-3856
▁citiz	-3857
▁smoke	-3858
▁hook	-3859
▁contain	-3860
▁episode	-3861
▁plastic	-3862
box	-3863
▁virus	-3864
power	-3865
▁corpor	-3866
ker	-3867
▁Dr	-3868
▁tort	-3869
▁consum	-3870
▁mistake	-3871
▁helpful	-3872
▁holiday	-3873
▁essential	-3874
▁snow	-3875
▁WW	-3876
ification	-3877
▁theme	-3878
▁whether	-3879
▁twist	-3880
▁uncomfortable	-3881
AT	-3882
▁flying	-3883
▁knock	-3884
▁upv	-3885
▁yout	-3886
iation	-3887
▁selling	-3888
using	-3889
iles	-3890
▁answers	-3891
▁sna	-3892
▁Af	-3893
▁purch	-3894
▁severe	-3895
▁limit	-3896
▁treatment	-3897
▁ate	-3898
▁sky	-3899
▁struggle	-3900
ung	-3901
▁battle	-3902
▁emergency	-3903
▁racist	-3904
▁court	-3905
▁However	-3906
▁hung	-3907
iber	-3908
shit	-3909
▁button	-3910
▁breaking	-3911
▁du	-3912
▁USA	-3913
▁shared	-3914
fill	-3915
▁maintain	-3916
mmy	-3917
▁Jesus	-3918
▁60	-3919
▁camera	-3920
▁Black	-3921
▁constant	-3922
▁round	-3923
▁Fuck	-3924
[?]	-3925
▁adults	-3926
▁judge	-3927
▁terrif	-3928
▁patient	-3929
▁laughing	-3930
▁survival	-3931
oh	-3932
org	-3933
▁Gen	-3934
anta	-3935
enty	-3936
▁whis	-3937
▁hund	-3938
▁mount	-3939
▁personally	-3940
▁dance	-3941
▁curious	-3942
list	-3943
▁fully	-3944
entle	-3945
Reddit	-3946
▁player	-3947
▁hundred	-3948
▁vib	-3949
▁arrest	-3950
▁batter	-3951
▁salt	-3952
▁bottom	-3953
▁contract	-3954
▁myth	-3955
▁remove	-3956
wor	-3957
▁weather	-3958
▁Here	-3959
▁ahhha	-3960
▁exercise	-3961
olf	-3962
eter	-3963
▁weeke	-3964
ipe	-3965
▁bare	-3966
men	-3967
▁--	-3968
▁jour	-3969
▁guns	-3970
▁cities	-3971
▁lapt	-3972
▁among	-3973
▁explan	-3974
▁medic	-3975
usting	-3976
▁contrib	-3977
▁priorit	-3978
athy	-3979
▁turning	-3980
▁United	-3981
etch	-3982
▁aspect	-3983
▁invent	-3984
▁Face	-3985
▁empty	-3986
vid	-3987
▁helping	-3988
anch	-3989
HH	-3990
▁Pres	-3991
▁tells	-3992
▁demand	-3993
▁greatest	-3994
▁entirely	-3995
▁casual	-3996
▁speaking	-3997
zen	-3998
30	-3999
aps	-4000
year	-4001
▁church	-4002
ino	-4003
usive	-4004
▁surround	-4005
▁nav	-4006
▁crying	-4007
▁phones	-4008
▁request	-4009
cknow	-4010
▁tomorrow	-4011
▁accur	-4012
arts	-4013
▁ahhah	-4014
inary	-4015
▁removed	-4016
▁location	-4017
▁cris	-4018
▁alien	-4019
ros	-4020
▁El	-4021
▁enem	-4022
▁THE	-4023
▁balls	-4024
▁development	-4025
▁acting	-4026
▁adop	-4027
▁intelligence	-4028
▁Will	-4029
▁knife	-4030
▁advant	-4031
ule	-4032
▁Inst	-4033
▁First	-4034
▁crack	-4035
gressive	-4036
▁nuclear	-4037
▁employees	-4038
anted	-4039
udd	-4040
icles	-4041
▁thri	-4042
▁final	-4043
▁spending	-4044
▁busy	-4045
▁document	-4046
▁bear	-4047
▁stranger	-4048
ivers	-4049
▁hous	-4050
▁Cal	-4051
amers	-4052
▁trees	-4053
▁acknow	-4054
▁choices	-4055
fast	-4056
▁unp	-4057
▁stom	-4058
▁absur	-4059
ilarious	-4060
▁horrible	-4061
▁chair	-4062
▁usual	-4063
▁States	-4064
▁traditional	-4065
▁income	-4066
▁pair	-4067
▁expectations	-4068
▁hall	-4069
▁solid	-4070
▁types	-4071
▁ghost	-4072
▁interests	-4073
▁inse	-4074
▁double	-4075
▁grandp	-4076
itter	-4077
▁North	-4078
▁insane	-4079
▁dropped	-4080
▁nic	-4081
▁gross	-4082
ords	-4083
▁Its	-4084
ocking	-4085
▁causes	-4086
▁classes	-4087
▁function	-4088
▁valuable	-4089
Don	-4090
▁desk	-4091
▁miles	-4092
▁chill	-4093
▁upset	-4094
SA	-4095
ss	-4096
▁tastes	-4097
▁crash	-4098
▁friendly	-4099
▁hers	-4100
▁wrote	-4101
▁becoming	-4102
▁tea	-4103
▁Wal	-4104
▁horror	-4105
ously	-4106
▁Gra	-4107
RE	-4108
▁diet	-4109
"",	-4110
▁sympt	-4111
▁surgery	-4112
▁slightly	-4113
▁pieces	-4114
ocaly	-4115
▁adding	-4116
▁arri	-4117
itude	-4118
arc	-4119
▁Being	-4120
CK	-4121
▁web	-4122
▁conven	-4123
▁sched	-4124
▁various	-4125
▁happiness	-4126
▁aka	-4127
▁ending	-4128
▁ship	-4129
▁beach	-4130
inter	-4131
▁fro	-4132
eng	-4133
▁struggling	-4134
ishment	-4135
illa	-4136
ropri	-4137
▁ded	-4138
▁asshole	-4139
▁focused	-4140
▁insult	-4141
▁gentle	-4142
▁decisions	-4143
▁hilarious	-4144
▁healthcare	-4145
▁Mus	-4146
▁bomb	-4147
oot	-4148
reg	-4149
la	-4150
lict	-4151
▁nearly	-4152
▁blank	-4153
▁proud	-4154
▁saved	-4155
▁levels	-4156
▁leaves	-4157
▁continue	-4158
▁admit	-4159
▁divor	-4160
eness	-4161
▁copy	-4162
vey	-4163
▁yours	-4164
▁ocean	-4165
▁mail	-4166
▁release	-4167
▁signs	-4168
▁program	-4169
itual	-4170
▁powers	-4171
▁butt	-4172
▁fruit	-4173
▁exists	-4174
▁politic	-4175
▁fal	-4176
▁held	-4177
▁foreign	-4178
▁surface	-4179
esides	-4180
▁cowork	-4181
▁grocer	-4182
icing	-4183
▁station	-4184
▁involves	-4185
▁gym	-4186
▁confused	-4187
iden	-4188
▁Make	-4189
▁impress	-4190
▁NOT	-4191
▁blow	-4192
▁designed	-4193
▁hat	-4194
▁trade	-4195
▁structure	-4196
▁prim	-4197
▁cleaning	-4198
eper	-4199
▁unc	-4200
▁talked	-4201
▁circum	-4202
▁detect	-4203
▁objects	-4204
▁naturally	-4205
ott	-4206
ession	-4207
▁movement	-4208
▁meeting	-4209
oly	-4210
▁candid	-4211
▁defend	-4212
umps	-4213
▁arms	-4214
▁filled	-4215
▁victim	-4216
gly	-4217
▁disease	-4218
-19	-4219
▁fed	-4220
▁funn	-4221
▁english	-4222
▁topic	-4223
▁screaming	-4224
put	-4225
▁Hit	-4226
▁finish	-4227
▁mut	-4228
▁artist	-4229
▁transport	-4230
▁notes	-4231
▁presence	-4232
watch	-4233
▁genuinely	-4234
▁leaders	-4235
▁wet	-4236
▁efficient	-4237
ED	-4238
▁disg	-4239
▁smoking	-4240
▁OP	-4241
▁hel	-4242
▁van	-4243
▁ine	-4244
▁anime	-4245
▁received	-4246
▁meme	-4247
▁highly	-4248
yl	-4249
▁drinks	-4250
▁Ab	-4251
atable	-4252
▁six	-4253
▁opportunity	-4254
▁prove	-4255
▁suicide	-4256
▁member	-4257
▁fashion	-4258
▁economic	-4259
▁dangerous	-4260
▁youtube	-4261
▁relevant	-4262
▁strangers	-4263
▁masks	-4264
▁themes	-4265
▁followed	-4266
igs	-4267
▁Co	-4268
▁determ	-4269
▁routine	-4270
▁Facebook	-4271
ued	-4272
▁sharp	-4273
▁homeless	-4274
▁gradu	-4275
son	-4276
▁stomach	-4277
▁embarrassing	-4278
▁climate	-4279
▁conversations	-4280
serious	-4281
▁Ge	-4282
▁polite	-4283
▁increase	-4284
▁strategy	-4285
lete	-4286
▁lying	-4287
▁Non	-4288
▁neck	-4289
▁benefits	-4290
▁Once	-4291
▁mort	-4292
others	-4293
▁advantage	-4294
▁ends	-4295
phere	-4296
▁goal	-4297
ups	-4298
▁king	-4299
▁commer	-4300
▁google	-4301
of	-4302
iers	-4303
yond	-4304
ager	-4305
▁Has	-4306
▁encoura	-4307
▁property	-4308
ums	-4309
▁Hmmm	-4310
▁cards	-4311
ront	-4312
▁pill	-4313
▁shirt	-4314
▁economy	-4315
▁actor	-4316
▁achieve	-4317
▁software	-4318
▁ens	-4319
▁lawyer	-4320
uman	-4321
xual	-4322
pret	-4323
▁sib	-4324
tered	-4325
▁tall	-4326
▁ads	-4327
▁compared	-4328
▁distur	-4329
▁schools	-4330
helm	-4331
ES	-4332
▁karma	-4333
▁legit	-4334
▁remain	-4335
▁conflict	-4336
sp	-4337
iqu	-4338
▁qual	-4339
▁bills	-4340
▁chose	-4341
ij	-4342
▁facts	-4343
▁pool	-4344
▁distance	-4345
▁somebody	-4346
kin	-4347
▁Red	-4348
▁jack	-4349
▁tele	-4350
▁reduce	-4351
▁stores	-4352
hold	-4353
▁naked	-4354
▁owner	-4355
II	-4356
▁pregnant	-4357
lier	-4358
▁Day	-4359
▁dollar	-4360
▁budget	-4361
ints	-4362
▁dirty	-4363
▁uncle	-4364
▁wra	-4365
atically	-4366
▁replace	-4367
▁separate	-4368
▁mob	-4369
▁encoun	-4370
▁statement	-4371
▁roommate	-4372
lies	-4373
▁storm	-4374
▁explicit	-4375
VID	-4376
▁valid	-4377
▁feature	-4378
▁mood	-4379
▁dynam	-4380
▁gather	-4381
father	-4382
AAAA	-4383
▁drivers	-4384
▁breath	-4385
▁Sim	-4386
▁Since	-4387
▁useless	-4388
▁photos	-4389
▁discovered	-4390
rets	-4391
▁occas	-4392
wood	-4393
▁trump	-4394
acing	-4395
▁expert	-4396
▁Nothing	-4397
idents	-4398
▁physically	-4399
iring	-4400
▁scratch	-4401
▁transl	-4402
▁reminds	-4403
fuck	-4404
▁17	-4405
force	-4406
▁simpl	-4407
▁struggles	-4408
▁spo	-4409
nding	-4410
▁till	-4411
▁lucky	-4412
▁kick	-4413
orge	-4414
▁national	-4415
▁windows	-4416
▁British	-4417
▁warning	-4418
▁199	-4419
▁confident	-4420
ona	-4421
ga	-4422
whelm	-4423
▁covid	-4424
▁ya	-4425
▁pets	-4426
▁staying	-4427
▁engage	-4428
▁review	-4429
▁picked	-4430
rad	-4431
▁sea	-4432
▁Super	-4433
▁Try	-4434
▁resist	-4435
▁details	-4436
▁vast	-4437
▁email	-4438
ustain	-4439
▁staff	-4440
▁lic	-4441
▁model	-4442
ictable	-4443
▁IT	-4444
▁initial	-4445
ram	-4446
▁cig	-4447
▁$2	-4448
▁tools	-4449
▁Her	-4450
▁socks	-4451
▁fuel	-4452
▁covered	-4453
▁connections	-4454
cing	-4455
▁harmful	-4456
▁glasses	-4457
▁accidentally	-4458
▁sem	-4459
▁stream	-4460
▁ignore	-4461
▁Someone	-4462
▁hyp	-4463
▁quir	-4464
▁taxes	-4465
can	-4466
istics	-4467
,"	-4468
izes	-4469
▁romantic	-4470
▁freely	-4471
▁excited	-4472
▁planning	-4473
▁relate	-4474
▁sle	-4475
▁hasn	-4476
action	-4477
▁however	-4478
▁loves	-4479
▁released	-4480
▁Bu	-4481
piracy	-4482
▁horse	-4483
▁laptop	-4484
▁tun	-4485
▁results	-4486
▁assist	-4487
▁closed	-4488
▁doctors	-4489
ems	-4490
▁clim	-4491
▁throwing	-4492
▁protection	-4493
▁responsibility	-4494
ica	-4495
uts	-4496
▁anal	-4497
▁arch	-4498
▁teaching	-4499
▁President	-4500
oned	-4501
cal	-4502
rees	-4503
▁false	-4504
ounce	-4505
▁shitty	-4506
▁mistakes	-4507
▁argument	-4508
▁breakfast	-4509
▁responsible	-4510
▁kit	-4511
▁guessing	-4512
▁cock	-4513
utions	-4514
▁pocket	-4515
▁confidence	-4516
top	-4517
▁Should	-4518
hem	-4519
▁jail	-4520
▁initially	-4521
▁intelligent	-4522
▁everybody	-4523
▁mons	-4524
▁commercial	-4525
▁excess	-4526
▁weapon	-4527
▁Afric	-4528
xy	-4529
▁From	-4530
▁:)	-4531
▁Mine	-4532
▁honey	-4533
▁solve	-4534
▁explanation	-4535
rab	-4536
iforn	-4537
eds	-4538
duct	-4539
▁AN	-4540
▁cousin	-4541
▁posting	-4542
▁yelling	-4543
ida	-4544
ingly	-4545
osphere	-4546
▁calcul	-4547
▁COVID	-4548
iled	-4549
▁brows	-4550
zing	-4551
▁treated	-4552
▁lies	-4553
▁independ	-4554
▁dealing	-4555
As	-4556
anish	-4557
rate	-4558
▁leader	-4559
▁summ	-4560
▁conditions	-4561
▁cere	-4562
▁Take	-4563
attoo	-4564
▁repeated	-4565
▁whenever	-4566
▁brings	-4567
▁mode	-4568
EA	-4569
In	-4570
but	-4571
▁aww	-4572
▁cup	-4573
▁annoy	-4574
▁By	-4575
▁fra	-4576
▁tight	-4577
▁allows	-4578
▁hon	-4579
▁measure	-4580
▁incredibly	-4581
▁liber	-4582
▁wanting	-4583
▁apply	-4584
▁illness	-4585
▁beyond	-4586
▁awful	-4587
▁violent	-4588
aint	-4589
mother	-4590
phones	-4591
▁device	-4592
▁nearby	-4593
▁policy	-4594
▁excuse	-4595
▁status	-4596
▁cring	-4597
▁download	-4598
▁Cor	-4599
place	-4600
▁nerv	-4601
erves	-4602
gas	-4603
comm	-4604
▁King	-4605
wing	-4606
▁pump	-4607
▁therapy	-4608
▁cant	-4609
▁christ	-4610
▁ahead	-4611
▁brown	-4612
▁Mr	-4613
▁impro	-4614
▁explore	-4615
▁chat	-4616
▁gang	-4617
▁weekend	-4618
▁overall	-4619
▁overwhelm	-4620
▁equal	-4621
▁deliver	-4622
bu	-4623
▁ultimately	-4624
▁Women	-4625
▁acid	-4626
▁liquid	-4627
▁election	-4628
ompl	-4629
▁flavors	-4630
▁profit	-4631
▁interactions	-4632
ads	-4633
▁sensitive	-4634
cel	-4635
hand	-4636
▁clar	-4637
▁stage	-4638
cles	-4639
▁sales	-4640
▁bright	-4641
▁princi	-4642
iable	-4643
▁smells	-4644
▁winter	-4645
▁smooth	-4646
▁shad	-4647
▁joy	-4648
▁rot	-4649
▁advent	-4650
rict	-4651
▁Turn	-4652
▁factors	-4653
iter	-4654
▁vul	-4655
▁chest	-4656
▁21	-4657
▁Girl	-4658
▁hated	-4659
▁successful	-4660
PS	-4661
free	-4662
▁moder	-4663
▁production	-4664
▁distinct	-4665
▁candy	-4666
▁america	-4667
▁funeral	-4668
gging	-4669
exic	-4670
▁hobby	-4671
▁matters	-4672
rant	-4673
▁join	-4674
▁electron	-4675
ilty	-4676
▁tip	-4677
▁Put	-4678
▁passion	-4679
▁Russia	-4680
encing	-4681
▁fired	-4682
▁catchy	-4683
▁Chinese	-4684
bies	-4685
▁Hell	-4686
▁Sometimes	-4687
iance	-4688
?""	-4689
▁plans	-4690
▁Anyone	-4691
▁recent	-4692
▁letters	-4693
▁symptoms	-4694
ok	-4695
▁wars	-4696
▁surprise	-4697
▁tag	-4698
▁Kore	-4699
▁puzz	-4700
▁fulfill	-4701
▁villain	-4702
estern	-4703
ography	-4704
▁sources	-4705
▁reven	-4706
TA	-4707
▁rude	-4708
ropriate	-4709
udes	-4710
▁fle	-4711
▁drawn	-4712
▁shopping	-4713
▁boat	-4714
▁generation	-4715
▁herself	-4716
▁birds	-4717
▁advanced	-4718
▁temperature	-4719
IS	-4720
▁file	-4721
▁install	-4722
▁penis	-4723
mission	-4724
▁mirror	-4725
▁While	-4726
▁regardless	-4727
MA	-4728
aled	-4729
▁Rob	-4730
ternal	-4731
▁checking	-4732
▁chemical	-4733
▁Ir	-4734
.""	-4735
▁nervous	-4736
▁boys	-4737
▁funniest	-4738
▁patterns	-4739
▁duck	-4740
▁bullshit	-4741
▁atmosphere	-4742
▁norms	-4743
▁regularly	-4744
▁Bar	-4745
▁freak	-4746
▁cab	-4747
though	-4748
▁deeply	-4749
▁suspicious	-4750
▁uns	-4751
▁analy	-4752
▁plant	-4753
▁profession	-4754
inally	-4755
▁bike	-4756
OR	-4757
▁apple	-4758
▁memes	-4759
▁sight	-4760
▁produce	-4761
▁scale	-4762
▁IS	-4763
-2	-4764
▁juice	-4765
▁linked	-4766
▁ord	-4767
▁sides	-4768
▁challenge	-4769
▁graph	-4770
▁apocaly	-4771
▁none	-4772
▁plays	-4773
▁isol	-4774
▁appearance	-4775
▁communication	-4776
house	-4777
▁accent	-4778
▁ticket	-4779
ls	-4780
▁gif	-4781
▁Tom	-4782
▁select	-4783
▁staring	-4784
▁progress	-4785
ifornia	-4786
▁breaks	-4787
▁Mexic	-4788
▁managed	-4789
▁Pe	-4790
ches	-4791
oper	-4792
▁faith	-4793
that	-4794
igate	-4795
▁existing	-4796
cure	-4797
▁supply	-4798
▁ingredients	-4799
▁alt	-4800
enses	-4801
▁libr	-4802
▁depart	-4803
▁conserv	-4804
▁cutting	-4805
▁deserve	-4806
py	-4807
asturb	-4808
▁drama	-4809
▁direction	-4810
▁lege	-4811
▁doubt	-4812
▁grown	-4813
▁Comm	-4814
▁sequ	-4815
▁intim	-4816
▁progra	-4817
▁affects	-4818
ibilities	-4819
▁examples	-4820
▁#	-4821
▁ugly	-4822
▁citizens	-4823
▁opening	-4824
▁rush	-4825
▁veget	-4826
▁posted	-4827
▁conspiracy	-4828
▁Ro	-4829
▁um	-4830
▁ske	-4831
▁instinct	-4832
▁detail	-4833
▁mac	-4834
▁reput	-4835
.5	-4836
▁parties	-4837
▁conscious	-4838
here	-4839
▁70	-4840
▁attend	-4841
▁portray	-4842
▁max	-4843
▁tong	-4844
▁ST	-4845
hab	-4846
irus	-4847
omy	-4848
▁army	-4849
▁subtle	-4850
▁range	-4851
▁prem	-4852
▁doors	-4853
▁moral	-4854
erved	-4855
▁Hitler	-4856
sm	-4857
▁unw	-4858
▁vulner	-4859
▁clock	-4860
▁proof	-4861
▁Disney	-4862
▁nation	-4863
▁orange	-4864
▁management	-4865
▁Big	-4866
▁fault	-4867
real	-4868
▁polic	-4869
▁attracted	-4870
ials	-4871
iders	-4872
▁proceed	-4873
reen	-4874
▁materials	-4875
▁harsh	-4876
▁active	-4877
▁prices	-4878
▁famil	-4879
▁split	-4880
▁americans	-4881
▁Sw	-4882
▁Pot	-4883
▁careful	-4884
gl	-4885
▁Thank	-4886
▁anger	-4887
▁wine	-4888
encies	-4889
▁earlier	-4890
▁sustain	-4891
▁texture	-4892
▁disturbing	-4893
lings	-4894
▁depth	-4895
▁expecting	-4896
▁na	-4897
▁stars	-4898
▁2000	-4899
▁prote	-4900
▁guilty	-4901
▁relatable	-4902
▁languages	-4903
▁diagn	-4904
▁terror	-4905
▁gravity	-4906
▁acceptable	-4907
▁bon	-4908
▁silence	-4909
▁dies	-4910
▁threw	-4911
bel	-4912
▁explo	-4913
ulations	-4914
▁tact	-4915
▁stands	-4916
urt	-4917
▁TL	-4918
▁tasks	-4919
▁Germany	-4920
▁accompl	-4921
▁pub	-4922
▁height	-4923
▁cheaper	-4924
ounced	-4925
▁tattoo	-4926
▁broad	-4927
▁colors	-4928
ipedia	-4929
▁beliefs	-4930
▁exe	-4931
▁letting	-4932
ikipedia	-4933
mark	-4934
▁closer	-4935
bra	-4936
▁hanging	-4937
OP	-4938
▁dram	-4939
▁cigare	-4940
▁amb	-4941
▁officer	-4942
▁eaten	-4943
ket	-4944
▁Rep	-4945
▁innocent	-4946
▁beginning	-4947
▁Got	-4948
ulated	-4949
▁epic	-4950
▁glad	-4951
▁pure	-4952
eline	-4953
▁cycle	-4954
▁zero	-4955
orida	-4956
▁crap	-4957
▁Sat	-4958
▁opened	-4959
▁crim	-4960
▁zombie	-4961
arks	-4962
▁edge	-4963
▁voting	-4964
▁$100	-4965
▁experiment	-4966
▁coinc	-4967
▁logic	-4968
▁films	-4969
▁failed	-4970
gia	-4971
▁Yeah	-4972
▁excl	-4973
▁boundaries	-4974
▁pil	-4975
▁folks	-4976
▁beauty	-4977
▁hotel	-4978
▁produc	-4979
?!	-4980
When	-4981
▁Bat	-4982
▁Last	-4983
▁concert	-4984
▁Sec	-4985
Am	-4986
fact	-4987
▁locked	-4988
▁paint	-4989
inem	-4990
▁parking	-4991
▁logical	-4992
▁advert	-4993
▁combat	-4994
lder	-4995
▁neut	-4996
▁soap	-4997
▁occur	-4998
well	-4999
▁san	-5000
▁evol	-5001
▁neighborhood	-5002
fortun	-5003
▁steal	-5004
▁Ok	-5005
▁suffering	-5006
bal	-5007
▁homes	-5008
▁witnessed	-5009
▁ash	-5010
gans	-5011
▁Time	-5012
▁dump	-5013
▁walls	-5014
▁twe	-5015
▁stab	-5016
▁French	-5017
▁center	-5018
▁pod	-5019
▁passing	-5020
▁cond	-5021
▁offered	-5022
▁Australia	-5023
oe	-5024
▁Cr	-5025
▁sites	-5026
lement	-5027
▁Only	-5028
▁photo	-5029
▁abilities	-5030
▁essentially	-5031
▁Hol	-5032
▁femin	-5033
▁thousands	-5034
▁Help	-5035
▁South	-5036
▁PC	-5037
▁football	-5038
▁university	-5039
aying	-5040
guing	-5041
▁artists	-5042
▁typical	-5043
▁explos	-5044
▁aggressive	-5045
▁Wars	-5046
▁prank	-5047
▁Bre	-5048
▁attached	-5049
itor	-5050
▁intent	-5051
▁complexity	-5052
▁fart	-5053
▁reson	-5054
▁poison	-5055
ado	-5056
▁agre	-5057
▁prec	-5058
▁rice	-5059
uries	-5060
▁stood	-5061
▁stayed	-5062
▁subreddits	-5063
▁sucks	-5064
▁fantasy	-5065
ula	-5066
▁rum	-5067
▁sport	-5068
ett	-5069
kers	-5070
▁unknown	-5071
▁sen	-5072
▁Harry	-5073
▁craz	-5074
don	-5075
▁bite	-5076
▁afterwards	-5077
▁plus	-5078
elly	-5079
▁poll	-5080
▁Great	-5081
▁democr	-5082
▁fancy	-5083
▁cultures	-5084
▁lift	-5085
▁families	-5086
▁prioritize	-5087
bon	-5088
▁disgusting	-5089
▁guid	-5090
▁whose	-5091
▁offend	-5092
rem	-5093
▁dishes	-5094
VER	-5095
▁display	-5096
▁$5	-5097
▁winning	-5098
▁performance	-5099
iger	-5100
▁Bas	-5101
▁concl	-5102
▁capital	-5103
ctions	-5104
▁addit	-5105
▁network	-5106
**	-5107
▁strict	-5108
▁digital	-5109
▁dumbest	-5110
▁Id	-5111
▁raised	-5112
osaur	-5113
▁equip	-5114
▁absurd	-5115
▁hungry	-5116
99	-5117
ortion	-5118
▁loyal	-5119
▁novel	-5120
▁furn	-5121
▁ears	-5122
▁clothing	-5123
▁delicious	-5124
EN	-5125
rooms	-5126
▁discussion	-5127
▁topics	-5128
ashed	-5129
phone	-5130
▁plants	-5131
▁racism	-5132
▁relatively	-5133
bur	-5134
eding	-5135
▁dial	-5136
▁spin	-5137
▁minds	-5138
▁defense	-5139
▁include	-5140
▁ath	-5141
▁babies	-5142
▁vehicle	-5143
▁Ve	-5144
osen	-5145
▁painful	-5146
▁raise	-5147
▁ppl	-5148
▁White	-5149
▁inher	-5150
▁Gr	-5151
onym	-5152
▁physics	-5153
▁stronger	-5154
▁Life	-5155
▁spa	-5156
▁wis	-5157
▁john	-5158
▁syn	-5159
▁nick	-5160
oman	-5161
itions	-5162
▁singing	-5163
80	-5164
bage	-5165
inger	-5166
▁wheel	-5167
▁nostalgia	-5168
ws	-5169
lin	-5170
hips	-5171
▁Dad	-5172
▁desire	-5173
▁shelter	-5174
▁reject	-5175
▁muscle	-5176
▁kindness	-5177
▁umm	-5178
▁heads	-5179
▁ideal	-5180
▁existed	-5181
esth	-5182
▁Our	-5183
▁buddy	-5184
▁replaced	-5185
▁pal	-5186
ength	-5187
▁recipe	-5188
▁spaces	-5189
▁justice	-5190
vil	-5191
uments	-5192
▁desper	-5193
NA	-5194
▁Obama	-5195
aching	-5196
▁creatures	-5197
yout	-5198
▁ped	-5199
orious	-5200
▁normally	-5201
▁Look	-5202
▁defin	-5203
40	-5204
▁pir	-5205
[?][?]	-5206
▁internal	-5207
ste	-5208
▁benefit	-5209
▁hitting	-5210
▁equipment	-5211
look	-5212
▁ast	-5213
▁medicine	-5214
▁Other	-5215
▁reference	-5216
▁Je	-5217
hael	-5218
▁pean	-5219
▁phil	-5220
oration	-5221
▁Intern	-5222
▁widely	-5223
▁barely	-5224
▁harass	-5225
▁corner	-5226
▁sweat	-5227
▁audience	-5228
▁convince	-5229
▁memorable	-5230
▁magn	-5231
▁tank	-5232
▁bacon	-5233
▁1000	-5234
▁messed	-5235
▁differences	-5236
min	-5237
rome	-5238
▁cope	-5239
ache	-5240
▁cheating	-5241
▁obl	-5242
▁north	-5243
▁paran	-5244
▁tongue	-5245
alian	-5246
▁Best	-5247
▁chain	-5248
▁houses	-5249
outs	-5250
▁ahr	-5251
istry	-5252
Donald	-5253
▁prepared	-5254
▁punishment	-5255
▁repet	-5256
▁majority	-5257
iate	-5258
▁aband	-5259
▁estab	-5260
▁mixed	-5261
aign	-5262
▁hadn	-5263
▁patients	-5264
hib	-5265
anned	-5266
▁loop	-5267
▁labor	-5268
▁former	-5269
yth	-5270
▁Fe	-5271
haha	-5272
▁weapons	-5273
ogy	-5274
▁mer	-5275
▁thick	-5276
ander	-5277
arter	-5278
▁anxious	-5279
▁whereas	-5280
▁elements	-5281
▁visual	-5282
▁pros	-5283
▁confirm	-5284
▁Bo	-5285
roll	-5286
▁thin	-5287
▁thats	-5288
▁impl	-5289
▁practical	-5290
▁plate	-5291
▁walks	-5292
▁hes	-5293
▁plenty	-5294
▁channel	-5295
▁breast	-5296
alloween	-5297
▁clue	-5298
If	-5299
▁toy	-5300
change	-5301
▁policies	-5302
▁computers	-5303
apers	-5304
conscious	-5305
▁sac	-5306
▁decl	-5307
▁These	-5308
▁cruel	-5309
▁grocery	-5310
▁Tell	-5311
usi	-5312
▁laid	-5313
▁thus	-5314
▁critic	-5315
▁traits	-5316
erk	-5317
▁panic	-5318
▁lux	-5319
▁High	-5320
▁chips	-5321
▁genre	-5322
▁belong	-5323
▁Jew	-5324
▁comedy	-5325
▁communicate	-5326
'.	-5327
irts	-5328
▁employee	-5329
▁domin	-5330
wear	-5331
▁deeper	-5332
▁circumst	-5333
vis	-5334
▁reputation	-5335
▁apocalypse	-5336
▁En	-5337
uls	-5338
phas	-5339
▁Char	-5340
▁lone	-5341
▁masturb	-5342
▁vacation	-5343
▁zone	-5344
▁apolog	-5345
60	-5346
▁woods	-5347
▁missed	-5348
▁throughout	-5349
▁possibility	-5350
▁PS	-5351
▁Com	-5352
water	-5353
▁crisis	-5354
▁guarant	-5355
stop	-5356
▁flaw	-5357
▁print	-5358
▁receive	-5359
▁Que	-5360
This	-5361
▁voc	-5362
▁gard	-5363
essed	-5364
▁scenes	-5365
▁prepare	-5366
▁incident	-5367
▁circle	-5368
▁stim	-5369
ashing	-5370
▁derived	-5371
mmed	-5372
ovid	-5373
▁rat	-5374
which	-5375
ading	-5376
▁Karen	-5377
▁Depend	-5378
OUS	-5379
related	-5380
▁scam	-5381
"".	-5382
▁Biden	-5383
▁trend	-5384
odes	-5385
oooo	-5386
▁reduc	-5387
▁creates	-5388
▁instruct	-5389
unte	-5390
▁schedule	-5391
▁cares	-5392
▁drawing	-5393
▁replies	-5394
▁strangest	-5395
▁aunt	-5396
agon	-5397
▁Santa	-5398
OW	-5399
any	-5400
▁infinite	-5401
rix	-5402
▁whats	-5403
▁diverse	-5404
▁particip	-5405
amond	-5406
▁complicated	-5407
▁Tra	-5408
▁campaign	-5409
▁Spe	-5410
▁Rock	-5411
▁faces	-5412
▁protein	-5413
▁DR	-5414
ormal	-5415
▁Doct	-5416
rol	-5417
▁Med	-5418
▁Had	-5419
▁align	-5420
▁millions	-5421
vin	-5422
ivery	-5423
▁tied	-5424
▁demon	-5425
ording	-5426
▁spark	-5427
▁steps	-5428
▁factor	-5429
▁racing	-5430
▁bond	-5431
▁disag	-5432
▁Japanese	-5433
▁accurate	-5434
aus	-5435
▁trail	-5436
▁expression	-5437
▁spr	-5438
▁motor	-5439
▁justify	-5440
▁concerns	-5441
▁ruined	-5442
▁tape	-5443
▁correctly	-5444
▁perceived	-5445
name	-5446
▁perman	-5447
▁developed	-5448
▁Gamers	-5449
▁decade	-5450
au	-5451
▁tac	-5452
▁tries	-5453
lock	-5454
▁mal	-5455
▁spray	-5456
▁fairly	-5457
▁couch	-5458
▁kicked	-5459
▁interaction	-5460
▁refuse	-5461
▁facebook	-5462
▁Rem	-5463
▁bags	-5464
▁bands	-5465
▁cu	-5466
▁scri	-5467
▁restaurants	-5468
▁task	-5469
▁larger	-5470
▁element	-5471
UCK	-5472
▁fort	-5473
▁tears	-5474
▁actors	-5475
▁claims	-5476
▁Covid	-5477
▁below	-5478
▁officers	-5479
▁politicians	-5480
Oh	-5481
▁collection	-5482
▁heaven	-5483
▁grandfather	-5484
▁arrested	-5485
▁guard	-5486
"?	-5487
▁seeking	-5488
▁scientific	-5489
▁Up	-5490
▁websites	-5491
▁roles	-5492
raw	-5493
▁boom	-5494
▁sour	-5495
▁McDonald	-5496
▁disappoint	-5497
▁finished	-5498
▁talent	-5499
No	-5500
illy	-5501
▁hack	-5502
▁pissed	-5503
▁besides	-5504
asses	-5505
inity	-5506
▁figured	-5507
▁laughed	-5508
▁Bill	-5509
▁colon	-5510
spe	-5511
▁genius	-5512
ugg	-5513
▁flow	-5514
▁click	-5515
▁pin	-5516
▁serve	-5517
▁script	-5518
iture	-5519
▁dirt	-5520
▁drove	-5521
▁accepted	-5522
▁automatically	-5523
▁lem	-5524
▁quant	-5525
▁trauma	-5526
▁entertainment	-5527
▁ponder	-5528
mber	-5529
▁Mon	-5530
▁profile	-5531
▁pleasure	-5532
IL	-5533
▁exha	-5534
▁yellow	-5535
▁burning	-5536
▁fold	-5537
▁fitting	-5538
▁believed	-5539
vest	-5540
▁las	-5541
▁rates	-5542
▁depressed	-5543
▁Sl	-5544
▁addiction	-5545
boy	-5546
retch	-5547
necess	-5548
eps	-5549
▁awake	-5550
We	-5551
ada	-5552
▁emphas	-5553
▁musical	-5554
▁programs	-5555
▁Bob	-5556
▁beef	-5557
▁sla	-5558
▁messages	-5559
aik	-5560
inting	-5561
▁Donald	-5562
▁applic	-5563
ittle	-5564
oster	-5565
▁breathing	-5566
azz	-5567
▁wow	-5568
being	-5569
▁unfair	-5570
▁battery	-5571
aker	-5572
▁Mac	-5573
▁bowl	-5574
▁brains	-5575
▁international	-5576
aste	-5577
▁oxy	-5578
▁via	-5579
▁debate	-5580
▁remote	-5581
▁Air	-5582
▁gig	-5583
▁label	-5584
▁coincidence	-5585
▁particularly	-5586
husi	-5587
▁perception	-5588
▁ourselves	-5589
▁psychological	-5590
▁1/	-5591
▁flex	-5592
▁ven	-5593
▁shout	-5594
▁convenient	-5595
▁fascinating	-5596
nov	-5597
▁cann	-5598
▁cure	-5599
underst	-5600
ek	-5601
rument	-5602
▁convin	-5603
▁accounts	-5604
ERI	-5605
▁identify	-5606
▁somewhat	-5607
▁studying	-5608
▁trapped	-5609
▁increased	-5610
▁Without	-5611
▁Two	-5612
▁athe	-5613
▁wealthy	-5614
▁seek	-5615
▁California	-5616
fi	-5617
nat	-5618
▁Mars	-5619
▁grandmother	-5620
esh	-5621
▁admin	-5622
▁shooting	-5623
ader	-5624
▁blame	-5625
▁clicks	-5626
▁searching	-5627
▁Lad	-5628
▁holes	-5629
▁crucial	-5630
▁siblings	-5631
▁coast	-5632
▁neighbors	-5633
▁chances	-5634
▁terrifying	-5635
▁Ap	-5636
▁brush	-5637
▁forms	-5638
▁length	-5639
▁Bra	-5640
▁hyd	-5641
etime	-5642
▁mum	-5643
▁library	-5644
▁Sha	-5645
▁Sand	-5646
▁Start	-5647
fun	-5648
osure	-5649
she	-5650
▁Ant	-5651
▁500	-5652
▁unpred	-5653
/11	-5654
▁absor	-5655
▁downv	-5656
▁heavily	-5657
▁license	-5658
▁interpret	-5659
▁Honest	-5660
▁stressed	-5661
▁lat	-5662
▁suppose	-5663
▁craziest	-5664
GB	-5665
▁realizing	-5666
▁instrument	-5667
▁communities	-5668
▁Sy	-5669
▁thro	-5670
ulting	-5671
▁volunte	-5672
▁cos	-5673
▁keys	-5674
▁toast	-5675
▁Christian	-5676
▁concerned	-5677
itt	-5678
den	-5679
icial	-5680
itution	-5681
▁airport	-5682
▁mentally	-5683
▁transfer	-5684
ds	-5685
elcome	-5686
▁unnecess	-5687
▁tor	-5688
▁enemy	-5689
▁south	-5690
icity	-5691
▁alarm	-5692
▁Call	-5693
OL	-5694
▁protest	-5695
bow	-5696
▁York	-5697
▁injury	-5698
▁attacks	-5699
▁section	-5700
▁establish	-5701
▁beans	-5702
▁frozen	-5703
▁proced	-5704
▁delivery	-5705
lla	-5706
vable	-5707
▁Fire	-5708
▁Could	-5709
▁quirky	-5710
▁adjust	-5711
aks	-5712
▁dent	-5713
Americ	-5714
▁enter	-5715
gi	-5716
▁Out	-5717
▁multi	-5718
▁bitter	-5719
▁universal	-5720
▁goals	-5721
▁intention	-5722
▁chosen	-5723
▁waking	-5724
▁sav	-5725
▁adds	-5726
anu	-5727
▁vision	-5728
▁disaster	-5729
▁associate	-5730
ii	-5731
ique	-5732
fit	-5733
char	-5734
▁Game	-5735
▁ignor	-5736
▁decades	-5737
▁zombies	-5738
▁desert	-5739
▁lonely	-5740
▁enthusi	-5741
▁dut	-5742
orage	-5743
▁acqu	-5744
oons	-5745
term	-5746
▁aid	-5747
▁Over	-5748
▁Pret	-5749
▁loose	-5750
▁meals	-5751
▁opportunities	-5752
▁fries	-5753
▁convinced	-5754
▁description	-5755
SD	-5756
▁soup	-5757
▁contains	-5758
AM	-5759
▁prescri	-5760
▁tail	-5761
▁sty	-5762
▁Jack	-5763
▁pasta	-5764
▁pepper	-5765
▁motivation	-5766
▁pink	-5767
▁pitch	-5768
▁earn	-5769
▁Act	-5770
▁blend	-5771
▁idiot	-5772
▁washing	-5773
▁99	-5774
agram	-5775
▁bedroom	-5776
olen	-5777
▁wisdom	-5778
▁era	-5779
▁wins	-5780
▁evolution	-5781
▁ruin	-5782
cience	-5783
school	-5784
▁drives	-5785
▁stopping	-5786
.....	-5787
▁About	-5788
▁reply	-5789
▁George	-5790
aters	-5791
▁Back	-5792
▁brut	-5793
▁rely	-5794
▁files	-5795
ained	-5796
▁soothing	-5797
ami	-5798
osis	-5799
uits	-5800
▁haun	-5801
▁solar	-5802
▁legend	-5803
▁includes	-5804
▁scariest	-5805
ufact	-5806
▁spicy	-5807
zer	-5808
aire	-5809
arian	-5810
inder	-5811
▁signal	-5812
▁genetic	-5813
rd	-5814
▁Cons	-5815
▁images	-5816
▁tricks	-5817
▁quarant	-5818
▁crimes	-5819
egr	-5820
▁empathy	-5821
rage	-5822
▁wishes	-5823
▁killer	-5824
▁ec	-5825
agger	-5826
▁nope	-5827
▁secure	-5828
▁assault	-5829
▁More	-5830
▁dislike	-5831
▁divorce	-5832
▁marketing	-5833
idal	-5834
▁effectively	-5835
▁soda	-5836
▁score	-5837
▁fridge	-5838
▁inner	-5839
▁rooms	-5840
▁trigger	-5841
▁critical	-5842
▁assign	-5843
▁clicked	-5844
▁Park	-5845
▁runs	-5846
▁blast	-5847
▁tests	-5848
▁devices	-5849
▁picking	-5850
▁recognize	-5851
▁Everything	-5852
ogue	-5853
▁launch	-5854
▁discrim	-5855
▁potatoes	-5856
▁$10	-5857
▁Dan	-5858
▁native	-5859
▁AI	-5860
▁meds	-5861
▁meaningful	-5862
▁Need	-5863
this	-5864
▁Net	-5865
▁gest	-5866
▁behavi	-5867
formation	-5868
▁virt	-5869
▁lately	-5870
▁nowhere	-5871
mmm	-5872
▁Mor	-5873
ava	-5874
ovie	-5875
▁See	-5876
▁stealing	-5877
▁candidate	-5878
terday	-5879
▁talks	-5880
▁motion	-5881
▁dinosaur	-5882
str	-5883
ERIOUS	-5884
▁furniture	-5885
vit	-5886
▁FB	-5887
▁iP	-5888
▁swim	-5889
▁rape	-5890
▁Serious	-5891
▁anybody	-5892
▁secrets	-5893
▁coworker	-5894
▁peaceful	-5895
olic	-5896
nal	-5897
▁lifest	-5898
▁command	-5899
fortunately	-5900
▁department	-5901
▁sneak	-5902
▁explained	-5903
▁exploring	-5904
orthy	-5905
▁german	-5906
rael	-5907
▁toys	-5908
▁kinds	-5909
▁defe	-5910
iveness	-5911
agers	-5912
works	-5913
▁plain	-5914
▁oxygen	-5915
ifies	-5916
▁machines	-5917
▁celebrities	-5918
stream	-5919
▁didnt	-5920
▁update	-5921
▁equally	-5922
aid	-5923
▁Per	-5924
▁fet	-5925
▁spell	-5926
eem	-5927
▁Dra	-5928
▁row	-5929
▁mild	-5930
▁microw	-5931
▁responses	-5932
owder	-5933
enance	-5934
▁condom	-5935
▁manufact	-5936
tery	-5937
▁included	-5938
amn	-5939
ours	-5940
▁household	-5941
lix	-5942
▁2.	-5943
bell	-5944
▁stops	-5945
▁stairs	-5946
▁Joe	-5947
▁auth	-5948
▁cloud	-5949
▁falls	-5950
▁fixed	-5951
▁moves	-5952
▁joking	-5953
▁bringing	-5954
osh	-5955
▁perpet	-5956
▁gal	-5957
▁insp	-5958
▁century	-5959
▁lane	-5960
▁forest	-5961
▁muscles	-5962
▁served	-5963
tw	-5964
alt	-5965
▁reasonable	-5966
girl	-5967
rors	-5968
▁rise	-5969
▁afaik	-5970
▁distrib	-5971
▁confront	-5972
war	-5973
▁hence	-5974
▁robot	-5975
▁stolen	-5976
▁methods	-5977
onav	-5978
ortal	-5979
▁vent	-5980
▁marry	-5981
izations	-5982
▁circumstances	-5983
▁invested	-5984
▁destroyed	-5985
▁lets	-5986
▁storage	-5987
▁torture	-5988
▁socially	-5989
▁charm	-5990
▁incor	-5991
▁swear	-5992
2,	-5993
why	-5994
▁ram	-5995
▁allerg	-5996
▁peanut	-5997
▁Nob	-5998
eting	-5999
▁sink	-6000
▁exposed	-6001
▁nuts	-6002
▁Michael	-6003
▁journey	-6004
▁stretch	-6005
▁Dem	-6006
▁failure	-6007
▁generations	-6008
▁raw	-6009
▁sending	-6010
inn	-6011
arty	-6012
osoph	-6013
▁IN	-6014
▁instant	-6015
cell	-6016
St	-6017
▁crew	-6018
ctional	-6019
▁Parents	-6020
▁destruction	-6021
▁straw	-6022
ban	-6023
▁stole	-6024
▁concent	-6025
▁soundtr	-6026
▁underrated	-6027
▁Law	-6028
▁Ass	-6029
▁map	-6030
▁Gree	-6031
▁West	-6032
▁potato	-6033
▁enforce	-6034
▁Mo	-6035
▁badly	-6036
SERIOUS	-6037
▁1.	-6038
▁handed	-6039
▁magical	-6040
▁Florida	-6041
▁rapid	-6042
▁garbage	-6043
▁Internet	-6044
▁Minecraft	-6045
▁passen	-6046
agine	-6047
stein	-6048
VE	-6049
▁Many	-6050
ptions	-6051
▁harmless	-6052
▁surprising	-6053
▁Gl	-6054
▁Love	-6055
▁dust	-6056
▁meas	-6057
▁pulling	-6058
▁choosing	-6059
▁realistic	-6060
▁ID	-6061
▁hurts	-6062
▁silver	-6063
▁minimum	-6064
▁recover	-6065
walk	-6066
▁pray	-6067
oday	-6068
berry	-6069
▁west	-6070
▁risks	-6071
▁youth	-6072
▁diamond	-6073
▁Ca	-6074
▁bang	-6075
▁Potter	-6076
▁hurtful	-6077
ifying	-6078
▁vegan	-6079
▁reward	-6080
▁cameras	-6081
asp	-6082
orter	-6083
▁bars	-6084
ensity	-6085
mp	-6086
Not	-6087
ini	-6088
▁sin	-6089
▁Still	-6090
▁rarely	-6091
▁repeat	-6092
▁exchange	-6093
ette	-6094
imming	-6095
▁degrees	-6096
▁trained	-6097
▁electricity	-6098
uted	-6099
ara	-6100
▁hi	-6101
▁toler	-6102
▁teleport	-6103
!!!	-6104
iju	-6105
flix	-6106
▁neutral	-6107
▁Honestly	-6108
TF	-6109
▁flip	-6110
▁dancing	-6111
▁embarrassed	-6112
▁began	-6113
▁Apparently	-6114
▁noises	-6115
▁hundreds	-6116
▁unnecessary	-6117
mare	-6118
coming	-6119
▁painting	-6120
▁standards	-6121
iot	-6122
▁ON	-6123
hern	-6124
reet	-6125
▁Tex	-6126
▁alp	-6127
▁escal	-6128
▁convey	-6129
onavirus	-6130
▁testing	-6131
urse	-6132
▁lands	-6133
▁forces	-6134
▁stable	-6135
▁purchase	-6136
▁dragon	-6137
▁mobile	-6138
▁exciting	-6139
asm	-6140
aning	-6141
while	-6142
ijuana	-6143
▁dim	-6144
▁format	-6145
▁competition	-6146
road	-6147
natural	-6148
▁tonight	-6149
▁vaccine	-6150
▁corporate	-6151
▁NY	-6152
lywood	-6153
▁Ag	-6154
▁coke	-6155
▁avoiding	-6156
▁compliment	-6157
▁frequently	-6158
▁depending	-6159
▁Mom	-6160
based	-6161
▁loving	-6162
▁monster	-6163
cont	-6164
▁Gold	-6165
▁Thing	-6166
▁sarc	-6167
',	-6168
AS	-6169
▁rab	-6170
usted	-6171
▁owned	-6172
▁consistently	-6173
pre	-6174
▁tub	-6175
▁Grand	-6176
▁Halloween	-6177
corn	-6178
▁arr	-6179
▁investment	-6180
▁Int	-6181
▁2:	-6182
▁stone	-6183
▁yelled	-6184
▁cereal	-6185
▁AskReddit	-6186
rial	-6187
▁nurs	-6188
▁acknowled	-6189
▁basis	-6190
anes	-6191
▁Step	-6192
▁ner	-6193
▁penc	-6194
▁breathe	-6195
acle	-6196
▁Republic	-6197
born	-6198
▁elim	-6199
▁addict	-6200
▁tab	-6201
▁eh	-6202
asant	-6203
caine	-6204
▁tent	-6205
▁cable	-6206
▁frustrating	-6207
▁Depends	-6208
▁dramatic	-6209
roid	-6210
gment	-6211
imm	-6212
verts	-6213
▁wire	-6214
mind	-6215
▁Val	-6216
▁fool	-6217
▁finds	-6218
vention	-6219
▁lifetime	-6220
gins	-6221
▁jew	-6222
▁unit	-6223
▁projects	-6224
▁restrict	-6225
▁aaa	-6226
world	-6227
▁silent	-6228
▁lun	-6229
▁cells	-6230
▁pover	-6231
▁ritual	-6232
▁reliable	-6233
ateg	-6234
avid	-6235
▁ensure	-6236
▁cookies	-6237
▁poverty	-6238
▁subscri	-6239
▁Naz	-6240
▁Keep	-6241
verted	-6242
▁horrif	-6243
mate	-6244
▁fab	-6245
iments	-6246
▁china	-6247
inations	-6248
althy	-6249
▁diss	-6250
▁crunch	-6251
▁percent	-6252
▁DO	-6253
▁Show	-6254
des	-6255
▁disappe	-6256
▁bub	-6257
achers	-6258
▁costume	-6259
▁highway	-6260
▁Sk	-6261
▁Par	-6262
▁mush	-6263
▁Pretty	-6264
▁relief	-6265
who	-6266
fire	-6267
ester	-6268
▁digest	-6269
▁wallet	-6270
▁visible	-6271
▁therapist	-6272
▁wave	-6273
▁bones	-6274
onge	-6275
▁yard	-6276
▁creature	-6277
▁superior	-6278
▁Pat	-6279
▁appears	-6280
..."	-6281
▁Find	-6282
▁boobs	-6283
▁scent	-6284
igation	-6285
▁anonym	-6286
▁medication	-6287
wr	-6288
rete	-6289
aches	-6290
▁optim	-6291
▁Wor	-6292
▁chip	-6293
▁invis	-6294
▁throat	-6295
▁christmas	-6296
▁ham	-6297
▁9/11	-6298
▁Indian	-6299
▁underwear	-6300
▁yell	-6301
▁messy	-6302
▁hire	-6303
▁intri	-6304
▁puzzle	-6305
isc	-6306
mma	-6307
cest	-6308
▁sam	-6309
etics	-6310
▁europe	-6311
-3	-6312
▁pig	-6313
▁brief	-6314
word	-6315
▁drag	-6316
arn	-6317
ptic	-6318
▁elev	-6319
▁tons	-6320
▁checked	-6321
▁chemistry	-6322
away	-6323
dity	-6324
▁FUCK	-6325
▁sets	-6326
▁sole	-6327
cho	-6328
ogs	-6329
▁advance	-6330
▁Dri	-6331
▁pit	-6332
▁Death	-6333
AY	-6334
inging	-6335
▁settle	-6336
▁incredible	-6337
imp	-6338
▁tickets	-6339
▁(1	-6340
▁vegg	-6341
▁darkness	-6342
▁roof	-6343
▁rocks	-6344
▁flood	-6345
▁suspect	-6346
▁upgr	-6347
ulating	-6348
▁fellow	-6349
▁quarantine	-6350
▁hobbies	-6351
ato	-6352
____	-6353
▁client	-6354
▁square	-6355
▁stability	-6356
▁Old	-6357
▁torn	-6358
ending	-6359
▁House	-6360
25	-6361
anda	-6362
▁introduc	-6363
▁combo	-6364
▁suggestions	-6365
HAT	-6366
anding	-6367
▁committed	-6368
rek	-6369
▁sup	-6370
▁cartoon	-6371
▁instrum	-6372
▁dynamics	-6373
That	-6374
point	-6375
▁sacrif	-6376
▁carrying	-6377
▁dict	-6378
▁scare	-6379
▁thrown	-6380
▁nostalgic	-6381
▁Anyway	-6382
▁integr	-6383
▁outcome	-6384
.,	-6385
▁Give	-6386
▁snack	-6387
▁maintenance	-6388
uu	-6389
case	-6390
alous	-6391
▁authority	-6392
iosity	-6393
▁river	-6394
▁mountain	-6395
lines	-6396
▁craw	-6397
▁laund	-6398
iki	-6399
▁Bad	-6400
▁Dark	-6401
▁shif	-6402
▁closest	-6403
▁dressed	-6404
oft	-6405
pal	-6406
▁superpower	-6407
limited	-6408
▁minimal	-6409
▁Basically	-6410
fall	-6411
isms	-6412
uate	-6413
▁wise	-6414
ologist	-6415
ae	-6416
bi	-6417
▁basement	-6418
▁guidance	-6419
▁lifestyle	-6420
▁notorious	-6421
▁categ	-6422
▁spect	-6423
▁Ben	-6424
▁Wind	-6425
▁moist	-6426
▁Instead	-6427
▁Russian	-6428
▁capable	-6429
▁que	-6430
employ	-6431
▁irrit	-6432
▁shame	-6433
▁revenge	-6434
▁hoping	-6435
▁Bet	-6436
▁shy	-6437
▁Comp	-6438
▁Spanish	-6439
▁deserves	-6440
▁appealing	-6441
▁excessive	-6442
uns	-6443
▁Right	-6444
▁contrad	-6445
▁payment	-6446
▁external	-6447
▁reactions	-6448
▁Poke	-6449
erties	-6450
▁imply	-6451
▁impressive	-6452
ki	-6453
car	-6454
iano	-6455
▁phen	-6456
▁oppon	-6457
▁Friday	-6458
▁french	-6459
▁spider	-6460
▁default	-6461
▁manipulate	-6462
2.	-6463
ogan	-6464
▁bugs	-6465
▁tang	-6466
▁shown	-6467
▁fundam	-6468
▁Imagine	-6469
▁screwed	-6470
▁Ze	-6471
build	-6472
▁Turns	-6473
▁phrases	-6474
bor	-6475
▁Their	-6476
▁immediate	-6477
▁yog	-6478
▁nor	-6479
apping	-6480
▁indic	-6481
▁vulnerable	-6482
see	-6483
▁Ser	-6484
▁sees	-6485
nhmm	-6486
▁Ang	-6487
▁gear	-6488
▁City	-6489
▁apps	-6490
▁mystery	-6491
▁shoulder	-6492
ellow	-6493
▁properties	-6494
Ch	-6495
esy	-6496
▁hug	-6497
▁stall	-6498
▁seemingly	-6499
▁friendship	-6500
▁ol	-6501
▁grass	-6502
▁Having	-6503
▁luxury	-6504
▁pushing	-6505
▁speakers	-6506
▁acknowledge	-6507
▁significantly	-6508
▁menu	-6509
▁poke	-6510
▁flaws	-6511
▁steak	-6512
▁hardest	-6513
▁shocked	-6514
▁commonly	-6515
▁satisfying	-6516
▁telev	-6517
ructure	-6518
▁athlet	-6519
▁stereotype	-6520
70	-6521
▁Person	-6522
,000,000	-6523
beat	-6524
tering	-6525
▁Watch	-6526
▁elder	-6527
▁gifts	-6528
▁podcast	-6529
bes	-6530
▁$3	-6531
▁gut	-6532
▁mand	-6533
▁trial	-6534
▁riding	-6535
▁article	-6536
itting	-6537
▁adopt	-6538
▁bullet	-6539
▁visiting	-6540
▁controlling	-6541
aby	-6542
gypt	-6543
▁argue	-6544
▁selfish	-6545
▁professor	-6546
▁Batman	-6547
▁secretly	-6548
▁compare	-6549
▁grandpa	-6550
▁allowing	-6551
▁philosoph	-6552
▁pretending	-6553
ussy	-6554
▁mini	-6555
elling	-6556
▁innov	-6557
▁server	-6558
▁AC	-6559
▁Res	-6560
▁thumb	-6561
▁cringe	-6562
▁rational	-6563
▁tradition	-6564
rs	-6565
▁tempor	-6566
▁swimming	-6567
▁definition	-6568
▁Korea	-6569
ressing	-6570
▁introdu	-6571
jo	-6572
berg	-6573
▁retail	-6574
▁engaging	-6575
▁streets	-6576
▁scientists	-6577
▁AND	-6578
▁Stop	-6579
▁wings	-6580
▁Africa	-6581
▁nights	-6582
▁Nice	-6583
▁Asian	-6584
How	-6585
▁increasing	-6586
lers	-6587
▁resc	-6588
▁au	-6589
▁bug	-6590
▁puts	-6591
▁cancel	-6592
▁Av	-6593
ttes	-6594
▁basket	-6595
gur	-6596
▁Rick	-6597
▁loudly	-6598
▁randomly	-6599
archy	-6600
▁hill	-6601
▁retire	-6602
▁homework	-6603
▁mechanism	-6604
mart	-6605
▁legally	-6606
US	-6607
▁Es	-6608
▁links	-6609
▁salty	-6610
▁listened	-6611
ship	-6612
▁glo	-6613
▁Texas	-6614
▁tension	-6615
▁affordable	-6616
▁France	-6617
▁compar	-6618
▁charged	-6619
▁repetitive	-6620
anic	-6621
ller	-6622
▁challenges	-6623
▁Guys	-6624
▁nail	-6625
▁sword	-6626
▁episodes	-6627
▁certainly	-6628
?\	-6629
rap	-6630
aven	-6631
▁suff	-6632
▁border	-6633
▁matches	-6634
▁Girls	-6635
▁perspectives	-6636
ME	-6637
ito	-6638
▁garden	-6639
▁touching	-6640
▁Today	-6641
▁compass	-6642
cur	-6643
lor	-6644
mmar	-6645
▁ages	-6646
▁paral	-6647
▁orders	-6648
▁purposes	-6649
▁stereotypes	-6650
▁tap	-6651
▁rage	-6652
▁loans	-6653
▁donate	-6654
▁facial	-6655
▁bone	-6656
▁figures	-6657
▁nightmare	-6658
rup	-6659
▁CD	-6660
▁insight	-6661
-4	-6662
uming	-6663
▁bears	-6664
▁divers	-6665
▁relaxed	-6666
▁Anything	-6667
▁mysterious	-6668
▁Before	-6669
▁Pokemon	-6670
▁fiction	-6671
▁immig	-6672
ja	-6673
▁hunting	-6674
▁wage	-6675
▁occup	-6676
pack	-6677
with	-6678
▁Amaz	-6679
▁Night	-6680
▁outdo	-6681
▁powder	-6682
▁refused	-6683
abilities	-6684
acement	-6685
▁thousand	-6686
▁DNA	-6687
▁Something	-6688
rastructure	-6689
▁ben	-6690
▁salary	-6691
▁disrupt	-6692
▁domest	-6693
▁influenced	-6694
bie	-6695
▁wonderful	-6696
▁invented	-6697
▁unpredictable	-6698
PA	-6699
▁aside	-6700
▁sticks	-6701
▁independent	-6702
pm	-6703
▁Fre	-6704
OS	-6705
think	-6706
▁annoyed	-6707
▁highest	-6708
▁obscure	-6709
▁aim	-6710
holes	-6711
▁deaf	-6712
▁prob	-6713
▁Think	-6714
▁calming	-6715
▁consent	-6716
▁diseases	-6717
▁soldiers	-6718
▁narrative	-6719
▁frustrated	-6720
▁misunderst	-6721
▁Pre	-6722
asters	-6723
unning	-6724
▁jeans	-6725
ysis	-6726
apse	-6727
▁rig	-6728
▁scan	-6729
▁criminal	-6730
21	-6731
▁cert	-6732
▁records	-6733
▁Hope	-6734
▁frustration	-6735
▁infrastructure	-6736
ackson	-6737
▁Sorry	-6738
▁slang	-6739
▁ultimate	-6740
▁yesterday	-6741
▁mods	-6742
▁possibilities	-6743
▁intimate	-6744
▁engineering	-6745
▁financially	-6746
new	-6747
they	-6748
▁Des	-6749
▁victims	-6750
▁superher	-6751
add	-6752
▁dele	-6753
▁frame	-6754
▁tracks	-6755
umes	-6756
▁trap	-6757
▁reveal	-6758
▁traveling	-6759
-5	-6760
amps	-6761
▁hah	-6762
▁Queen	-6763
▁ancest	-6764
▁assumed	-6765
▁corrupt	-6766
roph	-6767
▁198	-6768
▁Play	-6769
▁belt	-6770
stairs	-6771
▁driven	-6772
▁conservative	-6773
hy	-6774
sole	-6775
▁Haw	-6776
▁purs	-6777
▁boxes	-6778
▁headphones	-6779
▁Apple	-6780
alo	-6781
athers	-6782
▁drown	-6783
▁hired	-6784
etically	-6785
▁experiencing	-6786
▁cens	-6787
▁horn	-6788
aneously	-6789
▁Dead	-6790
▁Stud	-6791
▁~	-6792
▁privacy	-6793
▁root	-6794
etchup	-6795
▁forgotten	-6796
▁manipulation	-6797
ril	-6798
▁mile	-6799
▁worn	-6800
▁stays	-6801
▁Another	-6802
▁curiosity	-6803
ifi	-6804
aded	-6805
iques	-6806
▁core	-6807
▁sale	-6808
▁nurse	-6809
▁visited	-6810
▁mate	-6811
▁appeal	-6812
▁emotionally	-6813
mar	-6814
▁Mil	-6815
▁endless	-6816
aul	-6817
ucks	-6818
ausible	-6819
▁Israel	-6820
▁phenomen	-6821
good	-6822
▁300	-6823
▁shaped	-6824
▁spelling	-6825
▁abandoned	-6826
▁creepiest	-6827
mo	-6828
▁James	-6829
▁unlimited	-6830
▁grandparents	-6831
▁solo	-6832
unny	-6833
erving	-6834
giving	-6835
▁businesses	-6836
▁processing	-6837
▁organization	-6838
▁Read	-6839
▁controvers	-6840
▁wore	-6841
ologies	-6842
ppers	-6843
pread	-6844
▁realise	-6845
▁soundtrack	-6846
geon	-6847
▁Cra	-6848
▁dur	-6849
arted	-6850
▁blew	-6851
▁patch	-6852
▁banned	-6853
▁coping	-6854
▁glitch	-6855
orate	-6856
▁predict	-6857
▁Off	-6858
▁bacter	-6859
▁limits	-6860
▁platforms	-6861
▁mainstream	-6862
mates	-6863
▁invas	-6864
▁creation	-6865
▁distracted	-6866
▁vacu	-6867
▁territ	-6868
▁focusing	-6869
▁cheat	-6870
▁Mexico	-6871
▁volume	-6872
▁firm	-6873
ET	-6874
rical	-6875
▁surf	-6876
▁intel	-6877
▁jumping	-6878
▁teenager	-6879
rick	-6880
▁Def	-6881
▁acad	-6882
▁lockdown	-6883
▁India	-6884
▁layer	-6885
▁calories	-6886
▁Di	-6887
bles	-6888
▁Ever	-6889
▁Sure	-6890
▁wipe	-6891
▁cried	-6892
▁spreading	-6893
There	-6894
onday	-6895
▁channels	-6896
▁celebrate	-6897
▁San	-6898
▁vag	-6899
books	-6900
▁alert	-6901
▁error	-6902
▁waves	-6903
youtube	-6904
▁overwhelming	-6905
tf	-6906
▁bucks	-6907
▁flags	-6908
▁wrest	-6909
▁pointless	-6910
▁understood	-6911
▁characteristics	-6912
▁cabin	-6913
▁guide	-6914
▁screw	-6915
▁Italian	-6916
▁flowers	-6917
▁structures	-6918
rough	-6919
▁japan	-6920
▁England	-6921
▁guilt	-6922
▁survived	-6923
▁adventure	-6924
▁FBI	-6925
▁counsel	-6926
▁23	-6927
izard	-6928
▁hors	-6929
▁bucket	-6930
▁abusive	-6931
▁encourage	-6932
GBT	-6933
▁AM	-6934
▁Ed	-6935
▁jar	-6936
▁folk	-6937
▁fried	-6938
idespread	-6939
yn	-6940
▁pilot	-6941
▁Canadian	-6942
▁explaining	-6943
▁stare	-6944
▁burger	-6945
▁screens	-6946
▁triggers	-6947
Well	-6948
▁ease	-6949
▁pounds	-6950
▁45	-6951
outhern	-6952
▁snacks	-6953
▁ignored	-6954
▁disagree	-6955
fly	-6956
▁Hot	-6957
▁Use	-6958
▁hood	-6959
▁charges	-6960
▁supplies	-6961
▁widespread	-6962
UT	-6963
▁toothp	-6964
▁mig	-6965
▁por	-6966
▁east	-6967
▁mars	-6968
▁Kill	-6969
▁enjo	-6970
▁award	-6971
▁crowded	-6972
▁attitude	-6973
▁disorder	-6974
▁attraction	-6975
▁controlled	-6976
▁distraction	-6977
gal	-6978
▁deaths	-6979
▁affection	-6980
▁revolution	-6981
rey	-6982
atin	-6983
rency	-6984
▁lied	-6985
▁creativity	-6986
▁hygi	-6987
▁western	-6988
▁School	-6989
Hey	-6990
▁Lord	-6991
▁loan	-6992
▁inspir	-6993
▁brothers	-6994
▁concrete	-6995
▁appropriate	-6996
▁ahhh	-6997
▁vague	-6998
▁dismiss	-6999
▁roughly	-7000
▁exposure	-7001
Be	-7002
asty	-7003
▁les	-7004
▁pics	-7005
▁kills	-7006
▁grabbed	-7007
▁browsing	-7008
▁AT	-7009
rier	-7010
▁seven	-7011
ask	-7012
▁Bel	-7013
▁tat	-7014
▁improved	-7015
▁Seriously	-7016
▁stupidest	-7017
tte	-7018
▁acts	-7019
▁cooper	-7020
▁radiation	-7021
▁lawn	-7022
▁pine	-7023
▁stro	-7024
▁entit	-7025
▁roads	-7026
▁cocaine	-7027
▁keyboard	-7028
▁overcome	-7029
▁discussions	-7030
pass	-7031
▁nap	-7032
amous	-7033
▁incon	-7034
▁bottles	-7035
▁efforts	-7036
▁awareness	-7037
▁harassment	-7038
▁programming	-7039
▁mart	-7040
▁dates	-7041
▁salad	-7042
▁fetish	-7043
▁invited	-7044
▁Lo	-7045
▁Att	-7046
atar	-7047
iency	-7048
itals	-7049
▁lemon	-7050
▁piano	-7051
▁insect	-7052
▁popcorn	-7053
▁Teachers	-7054
▁although	-7055
umer	-7056
▁repro	-7057
▁navigate	-7058
▁actively	-7059
▁worrying	-7060
▁disappear	-7061
/10	-7062
orders	-7063
▁savings	-7064
▁baseball	-7065
▁described	-7066
▁Sam	-7067
▁Event	-7068
▁carbon	-7069
▁incomp	-7070
▁involving	-7071
▁plausible	-7072
aware	-7073
osexual	-7074
▁theories	-7075
arded	-7076
▁gall	-7077
▁grey	-7078
▁spill	-7079
▁Twitter	-7080
▁granted	-7081
▁reverse	-7082
col	-7083
iece	-7084
▁Sub	-7085
▁ain	-7086
▁nom	-7087
▁bell	-7088
▁privile	-7089
▁exploration	-7090
break	-7091
▁craft	-7092
▁imper	-7093
▁nood	-7094
▁nails	-7095
▁spirit	-7096
amer	-7097
odka	-7098
▁tiss	-7099
▁grades	-7100
▁enjoyed	-7101
weight	-7102
▁syrup	-7103
▁cooked	-7104
▁marijuana	-7105
▁robots	-7106
▁remains	-7107
▁buildings	-7108
▁uncertain	-7109
ondon	-7110
▁Form	-7111
▁funds	-7112
▁mouse	-7113
▁lesson	-7114
ications	-7115
▁console	-7116
▁practices	-7117
▁Happ	-7118
▁shoe	-7119
LY	-7120
yy	-7121
rog	-7122
▁triv	-7123
▁Always	-7124
▁federal	-7125
Ask	-7126
essions	-7127
▁origin	-7128
▁melt	-7129
▁upvotes	-7130
▁challenging	-7131
▁underground	-7132
wide	-7133
▁dod	-7134
▁jam	-7135
▁rul	-7136
▁Very	-7137
▁irre	-7138
riv	-7139
▁ank	-7140
▁fest	-7141
▁cheated	-7142
▁tut	-7143
▁brit	-7144
▁nipp	-7145
law	-7146
▁decre	-7147
▁microwave	-7148
▁Ac	-7149
▁IR	-7150
▁ow	-7151
▁closet	-7152
▁laughter	-7153
▁tu	-7154
▁reck	-7155
▁shake	-7156
▁amounts	-7157
▁repeatedly	-7158
▁consciousness	-7159
zed	-7160
▁LGBT	-7161
▁whisper	-7162
▁discussing	-7163
nel	-7164
ghter	-7165
▁wired	-7166
▁artific	-7167
▁pollution	-7168
gun	-7169
zard	-7170
▁Police	-7171
▁jumped	-7172
ologists	-7173
lord	-7174
▁golden	-7175
▁offers	-7176
▁Jeff	-7177
▁Work	-7178
▁route	-7179
▁encounter	-7180
▁permission	-7181
bid	-7182
▁russ	-7183
▁metap	-7184
ties	-7185
▁knee	-7186
▁voices	-7187
▁European	-7188
▁technically	-7189
▁pic	-7190
amily	-7191
ria	-7192
gression	-7193
IC	-7194
nded	-7195
▁ego	-7196
ampoo	-7197
▁television	-7198
orse	-7199
▁Sur	-7200
▁enh	-7201
▁discomfort	-7202
▁subjective	-7203
uous	-7204
▁los	-7205
▁blocks	-7206
▁needing	-7207
▁aa	-7208
▁snee	-7209
▁inevit	-7210
▁Sch	-7211
▁batt	-7212
▁cred	-7213
▁facing	-7214
▁overly	-7215
▁)	-7216
ota	-7217
iner	-7218
▁Ali	-7219
▁Wait	-7220
▁Nobody	-7221
▁cigarettes	-7222
ulty	-7223
▁Child	-7224
▁simult	-7225
▁strongly	-7226
ses	-7227
ipes	-7228
olves	-7229
▁redu	-7230
▁polar	-7231
▁protests	-7232
▁invisible	-7233
▁ps	-7234
ribly	-7235
▁insist	-7236
▁Getting	-7237
▁aspects	-7238
▁authent	-7239
cipl	-7240
▁911	-7241
▁Bern	-7242
▁buff	-7243
▁prost	-7244
▁reported	-7245
▁sandwiches	-7246
▁Real	-7247
▁region	-7248
▁reviews	-7249
ifications	-7250
ouche	-7251
▁rings	-7252
axy	-7253
▁Po	-7254
isco	-7255
▁Little	-7256
▁nations	-7257
dri	-7258
isters	-7259
▁evoke	-7260
▁fields	-7261
▁unable	-7262
▁construction	-7263
eler	-7264
▁evening	-7265
▁inconven	-7266
▁Netflix	-7267
▁coolest	-7268
▁appli	-7269
ruption	-7270
▁expertise	-7271
▁consistent	-7272
1.	-7273
▁golf	-7274
▁teens	-7275
▁burned	-7276
▁cookie	-7277
▁ordered	-7278
▁Long	-7279
12	-7280
cr	-7281
acity	-7282
field	-7283
▁junk	-7284
▁combined	-7285
▁infected	-7286
▁vehicles	-7287
▁highlight	-7288
itute	-7289
▁chop	-7290
▁execut	-7291
▁Doctors	-7292
▁adopted	-7293
vy	-7294
arre	-7295
▁vot	-7296
▁inch	-7297
▁flesh	-7298
lif	-7299
▁La	-7300
apped	-7301
▁spare	-7302
▁usage	-7303
▁enemies	-7304
▁speaker	-7305
▁BB	-7306
toos	-7307
▁toss	-7308
▁infection	-7309
▁Da	-7310
▁bridge	-7311
▁pushed	-7312
▁virgin	-7313
▁dealers	-7314
'?	-7315
ns	-7316
uh	-7317
▁TO	-7318
▁Rel	-7319
▁jun	-7320
▁fate	-7321
▁brands	-7322
AD	-7323
anged	-7324
▁Cont	-7325
▁Cha	-7326
▁clown	-7327
▁stats	-7328
▁seasons	-7329
gor	-7330
▁pour	-7331
▁garlic	-7332
▁official	-7333
-8	-7334
▁prime	-7335
▁discount	-7336
▁employer	-7337
▁beings	-7338
▁answered	-7339
▁questioning	-7340
inds	-7341
under	-7342
▁upvote	-7343
▁females	-7344
▁veggies	-7345
▁concepts	-7346
▁stressful	-7347
▁occasionally	-7348
▁Acc	-7349
happy	-7350
▁Fall	-7351
▁immune	-7352
▁perceive	-7353
▁Eventually	-7354
EO	-7355
▁GTA	-7356
▁saus	-7357
▁intentionally	-7358
▁bold	-7359
▁godd	-7360
▁maxim	-7361
▁flawed	-7362
gies	-7363
them	-7364
▁pant	-7365
orters	-7366
▁boost	-7367
rain	-7368
alking	-7369
▁cheer	-7370
▁jelly	-7371
▁formal	-7372
▁suicidal	-7373
▁defensive	-7374
▁predictable	-7375
▁3.	-7376
lege	-7377
▁tie	-7378
▁doom	-7379
itement	-7380
▁package	-7381
▁entertaining	-7382
▁Plus	-7383
▁Mario	-7384
▁Op	-7385
▁Space	-7386
▁honor	-7387
▁shots	-7388
▁Really	-7389
▁placed	-7390
▁ketchup	-7391
▁gf	-7392
▁vocal	-7393
▁weakness	-7394
▁importance	-7395
▁screams	-7396
▁Mu	-7397
kind	-7398
apple	-7399
▁Phil	-7400
▁cance	-7401
▁accused	-7402
▁intimid	-7403
check	-7404
▁lake	-7405
▁jealous	-7406
ophob	-7407
▁hint	-7408
▁withd	-7409
▁organs	-7410
▁expenses	-7411
▁$20	-7412
▁dun	-7413
▁Both	-7414
▁:(	-7415
▁assass	-7416
▁badass	-7417
▁carpet	-7418
▁unemploy	-7419
▁engagement	-7420
▁popularity	-7421
ighter	-7422
▁removing	-7423
rr	-7424
oyd	-7425
▁35	-7426
anas	-7427
rock	-7428
▁gum	-7429
▁funding	-7430
▁graphics	-7431
▁elsewhere	-7432
▁weigh	-7433
▁ladies	-7434
▁serial	-7435
ec	-7436
▁unhe	-7437
▁Count	-7438
▁memor	-7439
▁miscon	-7440
▁charism	-7441
▁contest	-7442
▁periods	-7443
▁playlist	-7444
▁mund	-7445
▁micro	-7446
▁queen	-7447
▁spoke	-7448
▁trait	-7449
▁During	-7450
▁senior	-7451
▁grammar	-7452
airy	-7453
▁Art	-7454
▁coworkers	-7455
▁sensation	-7456
Why	-7457
ola	-7458
▁mall	-7459
▁worker	-7460
▁bullied	-7461
UU	-7462
ener	-7463
▁aesth	-7464
quality	-7465
▁neither	-7466
▁excitement	-7467
▁burst	-7468
▁teams	-7469
▁National	-7470
▁sexually	-7471
▁Cong	-7472
▁audio	-7473
▁fundamental	-7474
▁imagination	-7475
So	-7476
otion	-7477
▁pockets	-7478
▁currency	-7479
keys	-7480
▁Green	-7481
▁spiritual	-7482
paper	-7483
▁miser	-7484
▁welcome	-7485
▁partners	-7486
fess	-7487
your	-7488
▁Hist	-7489
▁eats	-7490
▁seats	-7491
▁delete	-7492
▁environmental	-7493
▁Jim	-7494
▁shark	-7495
▁colour	-7496
▁hurting	-7497
olve	-7498
▁Mat	-7499
▁neglect	-7500
▁Water	-7501
▁surve	-7502
▁fabric	-7503
▁rating	-7504
▁generic	-7505
▁preference	-7506
▁Guy	-7507
▁Hum	-7508
▁tex	-7509
uting	-7510
▁functional	-7511
▁filter	-7512
▁beating	-7513
▁intimacy	-7514
1,	-7515
ba	-7516
▁banana	-7517
uct	-7518
▁rip	-7519
▁Same	-7520
▁wasted	-7521
▁lottery	-7522
pop	-7523
▁pork	-7524
▁sexy	-7525
cellent	-7526
▁buried	-7527
▁recipes	-7528
▁resource	-7529
▁vivid	-7530
▁touched	-7531
?)	-7532
fish	-7533
▁holy	-7534
▁OK	-7535
▁Pal	-7536
opath	-7537
▁2010	-7538
▁rural	-7539
▁landing	-7540
▁permanent	-7541
po	-7542
yard	-7543
▁lob	-7544
▁ted	-7545
▁agreed	-7546
▁substance	-7547
▁East	-7548
▁makeup	-7549
▁electronic	-7550
▁toothpaste	-7551
▁significance	-7552
lie	-7553
▁tho	-7554
ching	-7555
▁duty	-7556
eling	-7557
rosoft	-7558
▁Egypt	-7559
▁repair	-7560
▁promote	-7561
uding	-7562
▁infl	-7563
▁garage	-7564
▁tattoos	-7565
ih	-7566
▁22	-7567
▁Blue	-7568
▁bees	-7569
▁cows	-7570
▁covers	-7571
▁proven	-7572
▁emotion	-7573
▁hygiene	-7574
▁mundane	-7575
▁settings	-7576
▁motivated	-7577
▁vom	-7578
▁glor	-7579
▁recy	-7580
▁greater	-7581
▁laundry	-7582
▁dropping	-7583
▁snake	-7584
▁purple	-7585
▁precise	-7586
▁Bible	-7587
▁vibes	-7588
▁mechanics	-7589
▁providing	-7590
▁II	-7591
▁Buy	-7592
▁hates	-7593
forward	-7594
▁movements	-7595
aken	-7596
▁twin	-7597
▁Democr	-7598
▁shampoo	-7599
▁overlook	-7600
roc	-7601
iform	-7602
▁Friend	-7603
▁autism	-7604
▁referring	-7605
▁sustainable	-7606
ham	-7607
▁compens	-7608
▁pointed	-7609
▁holidays	-7610
▁pra	-7611
▁Rich	-7612
▁chap	-7613
▁ties	-7614
▁wont	-7615
▁David	-7616
▁ignoring	-7617
▁Down	-7618
▁dild	-7619
▁mole	-7620
▁devil	-7621
▁legacy	-7622
▁Univers	-7623
▁simultaneously	-7624
▁transportation	-7625
yan	-7626
▁sake	-7627
▁bodily	-7628
▁vacuum	-7629
▁Port	-7630
▁Music	-7631
▁cough	-7632
▁guest	-7633
▁mascul	-7634
▁camping	-7635
▁footage	-7636
▁dated	-7637
▁genie	-7638
▁shapes	-7639
TH	-7640
uke	-7641
▁2,	-7642
etti	-7643
▁luc	-7644
itate	-7645
▁divid	-7646
▁coronavirus	-7647
orted	-7648
▁Steve	-7649
▁serving	-7650
▁metaphor	-7651
uation	-7652
▁swallow	-7653
eed	-7654
win	-7655
etown	-7656
▁pays	-7657
▁subt	-7658
gorith	-7659
▁deadly	-7660
▁sucked	-7661
▁monitor	-7662
mic	-7663
ora	-7664
▁rein	-7665
▁phase	-7666
▁define	-7667
▁clients	-7668
▁register	-7669
▁2)	-7670
ndrome	-7671
▁pages	-7672
▁submit	-7673
▁collective	-7674
anny	-7675
izarre	-7676
▁upper	-7677
▁nickname	-7678
▁offering	-7679
▁wondered	-7680
▁2019	-7681
onnect	-7682
ructive	-7683
▁governments	-7684
hhhh	-7685
▁tune	-7686
▁Second	-7687
▁backwards	-7688
▁implement	-7689
▁Swed	-7690
▁setup	-7691
▁hurric	-7692
▁suitable	-7693
19	-7694
vo	-7695
long	-7696
mmers	-7697
▁bully	-7698
osition	-7699
▁freeze	-7700
▁applies	-7701
-20	-7702
▁WH	-7703
▁Det	-7704
ordon	-7705
▁wifi	-7706
▁holds	-7707
▁divide	-7708
▁ironic	-7709
▁presidential	-7710
▁Dep	-7711
▁sche	-7712
▁coord	-7713
▁spots	-7714
▁fights	-7715
▁charity	-7716
▁evolved	-7717
acked	-7718
▁pharm	-7719
▁rocket	-7720
▁worlds	-7721
icip	-7722
▁WWII	-7723
▁muse	-7724
▁shave	-7725
▁unatt	-7726
▁lesser	-7727
▁upload	-7728
▁blanket	-7729
▁attacked	-7730
▁leadership	-7731
ht	-7732
▁Way	-7733
▁hip	-7734
▁tear	-7735
▁elderly	-7736
▁algorith	-7737
▁complaining	-7738
▁Bur	-7739
▁skip	-7740
▁roller	-7741
▁mission	-7742
▁primary	-7743
▁confusing	-7744
iac	-7745
osy	-7746
ucky	-7747
▁Cur	-7748
▁heal	-7749
▁inapp	-7750
▁discipl	-7751
▁literal	-7752
▁signals	-7753
-10	-7754
esis	-7755
▁cinem	-7756
▁vodka	-7757
▁caring	-7758
▁gesture	-7759
▁theater	-7760
▁Hill	-7761
▁poly	-7762
▁rhyth	-7763
▁waited	-7764
▁hometown	-7765
▁midnight	-7766
▁foundation	-7767
▁Kn	-7768
▁reco	-7769
▁measures	-7770
bul	-7771
bian	-7772
dest	-7773
dated	-7774
▁jazz	-7775
▁scra	-7776
▁rolling	-7777
IG	-7778
avy	-7779
He	-7780
dr	-7781
▁Next	-7782
▁slip	-7783
▁warmth	-7784
▁handling	-7785
▁noticing	-7786
irect	-7787
▁dudes	-7788
itarian	-7789
▁dinosaurs	-7790
▁intriguing	-7791
▁alternatives	-7792
▁cave	-7793
▁goods	-7794
▁filling	-7795
▁updates	-7796
▁vaccines	-7797
▁texts	-7798
▁belief	-7799
yram	-7800
going	-7801
icide	-7802
▁Jackson	-7803
nic	-7804
▁DM	-7805
ested	-7806
▁rebo	-7807
▁roast	-7808
▁Finally	-7809
▁feedback	-7810
▁treating	-7811
yp	-7812
ago	-7813
▁vet	-7814
olved	-7815
▁increases	-7816
▁supporting	-7817
▁Shit	-7818
▁Human	-7819
▁pills	-7820
▁astron	-7821
▁republic	-7822
▁introduced	-7823
vi	-7824
nes	-7825
▁fame	-7826
cember	-7827
▁techniques	-7828
IP	-7829
bag	-7830
etc	-7831
gage	-7832
▁POP	-7833
▁ink	-7834
▁horm	-7835
▁league	-7836
▁injuries	-7837
▁enforcement	-7838
▁Kim	-7839
▁Mur	-7840
ogether	-7841
▁lean	-7842
▁sung	-7843
▁wound	-7844
▁sheets	-7845
▁ownership	-7846
▁towel	-7847
▁Amazon	-7848
▁uniform	-7849
▁classical	-7850
▁desperate	-7851
ded	-7852
▁Pet	-7853
▁breed	-7854
▁misin	-7855
▁inches	-7856
▁chaotic	-7857
▁reached	-7858
▁assholes	-7859
▁charging	-7860
LE	-7861
heads	-7862
▁spoon	-7863
▁joined	-7864
▁planned	-7865
▁bothered	-7866
▁mountains	-7867
▁Ma	-7868
▁royal	-7869
▁cub	-7870
▁foll	-7871
▁curse	-7872
▁hyper	-7873
▁collapse	-7874
▁fif	-7875
▁pillow	-7876
▁profound	-7877
▁accomplish	-7878
pg	-7879
reck	-7880
▁dys	-7881
▁Home	-7882
▁gained	-7883
▁guests	-7884
▁signed	-7885
ggy	-7886
▁Sund	-7887
▁bias	-7888
▁spice	-7889
▁fought	-7890
▁Add	-7891
▁Squ	-7892
▁toe	-7893
▁ants	-7894
▁cham	-7895
▁beard	-7896
▁according	-7897
LLY	-7898
pire	-7899
▁vamp	-7900
▁ships	-7901
▁obsessed	-7902
▁representation	-7903
▁knees	-7904
▁arrived	-7905
▁studies	-7906
▁disappointed	-7907
bus	-7908
ownt	-7909
▁mos	-7910
ronic	-7911
▁witty	-7912
ractive	-7913
▁manner	-7914
▁videog	-7915
▁regarding	-7916
arms	-7917
geons	-7918
ieval	-7919
▁cuts	-7920
telling	-7921
▁Either	-7922
▁branch	-7923
▁pencil	-7924
▁affecting	-7925
▁biological	-7926
▁surrounding	-7927
ares	-7928
▁Tit	-7929
stone	-7930
▁delay	-7931
▁prone	-7932
▁recru	-7933
▁racial	-7934
▁bacteria	-7935
▁gameplay	-7936
▁fees	-7937
essert	-7938
▁slept	-7939
▁medium	-7940
cape	-7941
▁neur	-7942
▁trends	-7943
AAAAAAAA	-7944
▁qualities	-7945
▁supposedly	-7946
▁ax	-7947
!!!!	-7948
inals	-7949
▁Found	-7950
▁rubber	-7951
▁freaked	-7952
nH	-7953
▁cogn	-7954
▁scheme	-7955
▁reduced	-7956
▁hey	-7957
▁Post	-7958
▁landed	-7959
▁assumption	-7960
▁resistance	-7961
isy	-7962
▁exagger	-7963
▁reflection	-7964
rid	-7965
▁sue	-7966
▁alleg	-7967
▁input	-7968
▁sorts	-7969
▁Didn	-7970
▁gate	-7971
▁wing	-7972
▁heroin	-7973
▁poorly	-7974
▁journal	-7975
▁frequency	-7976
▁overnight	-7977
▁civilization	-7978
▁Min	-7979
▁amm	-7980
crast	-7981
inton	-7982
▁EVER	-7983
viously	-7984
▁horses	-7985
▁dynamic	-7986
▁fishing	-7987
▁contribute	-7988
cha	-7989
izer	-7990
▁Scott	-7991
▁treats	-7992
▁applied	-7993
▁continued	-7994
▁technical	-7995
▁pronounced	-7996
▁pride	-7997
▁douche	-7998
▁planes	-7999
▁variety	-8000
ibal	-8001
getic	-8002
▁Hard	-8003
▁poem	-8004
▁parad	-8005
▁Things	-8006
▁ripped	-8007
▁styles	-8008
▁smiling	-8009
▁determine	-8010
▁Especially	-8011
▁threatened	-8012
3.	-8013
▁1)	-8014
hone	-8015
brush	-8016
ensions	-8017
oral	-8018
istan	-8019
▁Miss	-8020
▁relie	-8021
▁Johnny	-8022
▁mature	-8023
▁shorts	-8024
▁electronics	-8025
▁pile	-8026
▁arrive	-8027
▁tourists	-8028
▁excellent	-8029
▁collecting	-8030
▁comic	-8031
▁exotic	-8032
▁AMA	-8033
belie	-8034
ocate	-8035
▁formula	-8036
▁abortion	-8037
▁instruments	-8038
lessly	-8039
▁spoken	-8040
▁processes	-8041
▁underlying	-8042
rants	-8043
▁Alex	-8044
▁eleph	-8045
▁safer	-8046
▁trips	-8047
▁Bernie	-8048
▁turkey	-8049
▁whoever	-8050
▁accepting	-8051
▁explosion	-8052
▁workplace	-8053
rian	-8054
▁Lots	-8055
▁deals	-8056
▁pound	-8057
▁rolls	-8058
▁prompt	-8059
▁lighter	-8060
have	-8061
pers	-8062
▁judged	-8063
ervation	-8064
mb	-8065
ideo	-8066
▁ener	-8067
▁arguing	-8068
▁experts	-8069
▁superhero	-8070
amin	-8071
acles	-8072
▁armor	-8073
▁strike	-8074
▁spiders	-8075
▁traumatic	-8076
▁artificial	-8077
▁DV	-8078
▁LA	-8079
lymp	-8080
imgur	-8081
lands	-8082
▁leap	-8083
▁pupp	-8084
▁chuck	-8085
▁divorced	-8086
▁guarantee	-8087
yes	-8088
▁bum	-8089
▁champ	-8090
▁intended	-8091
▁energetic	-8092
▁transform	-8093
▁candidates	-8094
BA	-8095
Do	-8096
utch	-8097
▁vit	-8098
urday	-8099
▁Cent	-8100
▁Mark	-8101
▁tasty	-8102
▁checks	-8103
▁layers	-8104
▁quotes	-8105
▁chinese	-8106
▁relaxing	-8107
▁eer	-8108
▁odds	-8109
▁Inter	-8110
▁teenage	-8111
▁tourist	-8112
▁treasure	-8113
7,	-8114
▁une	-8115
▁bits	-8116
▁rolled	-8117
▁comprom	-8118
▁knocked	-8119
▁recognition	-8120
aze	-8121
iven	-8122
▁Sil	-8123
cture	-8124
irrel	-8125
▁gods	-8126
respect	-8127
▁derive	-8128
▁recording	-8129
▁assistance	-8130
Is	-8131
▁0.	-8132
▁kidna	-8133
▁abroad	-8134
▁cheesy	-8135
▁confusion	-8136
▁Arab	-8137
▁albums	-8138
▁reminded	-8139
▁REA	-8140
▁goo	-8141
▁clin	-8142
▁brill	-8143
▁negot	-8144
▁Windows	-8145
▁virtual	-8146
▁instance	-8147
▁incorrect	-8148
▁intellect	-8149
oma	-8150
▁Lear	-8151
▁strip	-8152
▁witch	-8153
▁borrow	-8154
▁hunger	-8155
▁mentions	-8156
▁realization	-8157
▁straightforward	-8158
▁BE	-8159
▁None	-8160
▁deny	-8161
▁nons	-8162
▁males	-8163
ceptions	-8164
▁cigarette	-8165
▁relaxation	-8166
▁AD	-8167
▁whom	-8168
▁hooked	-8169
▁blowing	-8170
▁planets	-8171
▁freaking	-8172
▁offended	-8173
▁simulation	-8174
▁plu	-8175
▁oven	-8176
▁appoint	-8177
▁failing	-8178
▁lessons	-8179
▁behaviors	-8180
▁advertising	-8181
kel	-8182
▁Cat	-8183
▁oct	-8184
▁embr	-8185
▁lips	-8186
▁unre	-8187
▁Former	-8188
▁baking	-8189
▁tricky	-8190
▁earthqu	-8191
▁carefully	-8192
▁corporations	-8193
ixt	-8194
made	-8195
level	-8196
▁2016	-8197
▁exec	-8198
▁spit	-8199
▁rehab	-8200
▁sheer	-8201
▁crappy	-8202
▁isolated	-8203
▁offensive	-8204
▁Sky	-8205
▁bush	-8206
umbled	-8207
▁surely	-8208
▁burgers	-8209
▁redditor	-8210
▁cancelled	-8211
▁diagnosed	-8212
▁terrified	-8213
hey	-8214
obs	-8215
ament	-8216
person	-8217
▁emails	-8218
▁extended	-8219
▁translate	-8220
adays	-8221
▁Movie	-8222
▁infer	-8223
▁overhe	-8224
▁alot	-8225
▁Middle	-8226
▁gamers	-8227
▁combine	-8228
UR	-8229
unci	-8230
ushi	-8231
unity	-8232
▁Free	-8233
▁lungs	-8234
pan	-8235
immy	-8236
tain	-8237
▁2020?	-8238
▁inject	-8239
▁closely	-8240
▁couples	-8241
ventional	-8242
90	-8243
mail	-8244
▁matt	-8245
▁niche	-8246
▁Monday	-8247
▁Usually	-8248
▁outdated	-8249
▁arguments	-8250
▁consumption	-8251
▁convenience	-8252
▁storytelling	-8253
▁inappropriate	-8254
▁arts	-8255
▁laser	-8256
▁onion	-8257
▁uncon	-8258
▁typing	-8259
▁engaged	-8260
lam	-8261
zes	-8262
▁NA	-8263
▁$50	-8264
▁auto	-8265
▁models	-8266
▁raises	-8267
▁dessert	-8268
▁emphasis	-8269
▁implying	-8270
▁pregnancy	-8271
▁validation	-8272
itage	-8273
▁vibr	-8274
intend	-8275
▁drank	-8276
▁melody	-8277
▁promise	-8278
▁Hollywood	-8279
▁1,	-8280
▁flop	-8281
▁thor	-8282
▁decor	-8283
fficiency	-8284
▁transition	-8285
▁NO	-8286
▁od	-8287
ghetti	-8288
▁Irish	-8289
▁succeed	-8290
▁backyard	-8291
▁batteries	-8292
▁particles	-8293
▁procedure	-8294
▁professionals	-8295
def	-8296
▁knives	-8297
▁dialogue	-8298
▁afterlife	-8299
▁miserable	-8300
▁BL	-8301
abled	-8302
▁todd	-8303
▁Trans	-8304
▁coverage	-8305
▁copyright	-8306
▁receiving	-8307
▁analyze	-8308
▁documentary	-8309
attered	-8310
▁burden	-8311
▁idiots	-8312
▁Ron	-8313
▁bee	-8314
▁tested	-8315
▁servers	-8316
IA	-8317
▁Reg	-8318
▁auton	-8319
▁belly	-8320
▁downt	-8321
▁stored	-8322
tra	-8323
▁Sa	-8324
▁wrap	-8325
▁ceiling	-8326
istration	-8327
▁provides	-8328
▁dedicated	-8329
5,	-8330
▁Met	-8331
akers	-8332
▁stance	-8333
DR	-8334
anye	-8335
▁seeds	-8336
working	-8337
▁sounded	-8338
▁judgment	-8339
4.	-8340
▁Nor	-8341
▁mol	-8342
anging	-8343
▁Frank	-8344
▁grave	-8345
▁edible	-8346
▁bizarre	-8347
▁identical	-8348
▁pronounce	-8349
▁temporary	-8350
met	-8351
atile	-8352
▁trucks	-8353
▁African	-8354
▁conclusion	-8355
▁psychology	-8356
MP	-8357
bac	-8358
▁arc	-8359
▁browser	-8360
▁sadness	-8361
▁chew	-8362
▁shell	-8363
▁tables	-8364
▁claimed	-8365
▁organized	-8366
▁Vegas	-8367
▁faced	-8368
▁fiance	-8369
hal	-8370
▁cum	-8371
▁boot	-8372
▁vine	-8373
▁Again	-8374
▁voted	-8375
▁papers	-8376
▁kidding	-8377
▁printer	-8378
▁regulations	-8379
▁shed	-8380
▁Going	-8381
▁manif	-8382
▁hypoth	-8383
▁shorter	-8384
oken	-8385
▁bible	-8386
▁urban	-8387
▁votes	-8388
▁biased	-8389
▁shield	-8390
▁extract	-8391
oured	-8392
▁rapp	-8393
▁Chris	-8394
▁recovery	-8395
▁versions	-8396
iel	-8397
▁soy	-8398
human	-8399
▁buzz	-8400
▁dough	-8401
▁tactics	-8402
bar	-8403
inge	-8404
▁rib	-8405
▁Jewish	-8406
▁Ladies	-8407
▁chains	-8408
▁spring	-8409
▁toward	-8410
▁consume	-8411
▁dressing	-8412
▁solutions	-8413
▁accessible	-8414
▁personalities	-8415
3,	-8416
!""	-8417
aaaa	-8418
etry	-8419
▁humid	-8420
▁steel	-8421
▁thrive	-8422
▁longest	-8423
▁mustard	-8424
▁elevator	-8425
▁enjoyable	-8426
▁sarcastic	-8427
):	-8428
post	-8429
▁Str	-8430
▁cul	-8431
▁fraud	-8432
▁squee	-8433
▁franch	-8434
▁director	-8435
cre	-8436
icop	-8437
atoes	-8438
▁Vader	-8439
▁climb	-8440
▁murdered	-8441
▁Bru	-8442
▁rabbit	-8443
▁informed	-8444
onel	-8445
▁bast	-8446
▁indo	-8447
esting	-8448
▁shirts	-8449
iterally	-8450
▁central	-8451
▁quarter	-8452
▁legitimate	-8453
tling	-8454
▁nasty	-8455
▁numer	-8456
rie	-8457
wiki	-8458
▁Gal	-8459
▁WTF	-8460
▁bin	-8461
▁shr	-8462
▁obst	-8463
▁sock	-8464
ateful	-8465
▁depos	-8466
▁hammer	-8467
▁believes	-8468
imal	-8469
▁Aut	-8470
▁Mad	-8471
▁usa	-8472
▁Kind	-8473
▁ling	-8474
▁snap	-8475
▁stir	-8476
▁dentist	-8477
▁liberal	-8478
▁enjoying	-8479
oric	-8480
unks	-8481
▁echo	-8482
▁verb	-8483
ighters	-8484
▁assert	-8485
▁bleach	-8486
▁afterno	-8487
▁Whatever	-8488
▁medieval	-8489
▁elementary	-8490
▁commercials	-8491
▁instructions	-8492
▁Sex	-8493
elines	-8494
▁sized	-8495
▁string	-8496
▁adorable	-8497
▁subconscious	-8498
4,	-8499
▁cudd	-8500
▁rhym	-8501
angers	-8502
ulture	-8503
▁fails	-8504
▁monit	-8505
▁aster	-8506
▁spouse	-8507
▁capacity	-8508
▁withdraw	-8509
▁disappeared	-8510
HHHH	-8511
some	-8512
▁Hom	-8513
▁Capt	-8514
▁pulls	-8515
▁tweet	-8516
▁onions	-8517
▁resume	-8518
▁titles	-8519
▁Fucking	-8520
▁noodles	-8521
▁floating	-8522
▁sweetness	-8523
acc	-8524
▁gap	-8525
▁pier	-8526
▁pigs	-8527
▁deter	-8528
▁capture	-8529
▁greatly	-8530
▁performed	-8531
▁teenagers	-8532
▁Boy	-8533
▁Wow	-8534
▁opens	-8535
▁humble	-8536
▁sequel	-8537
▁successfully	-8538
weet	-8539
opher	-8540
▁pipe	-8541
▁immers	-8542
▁pursue	-8543
▁acceler	-8544
▁basketball	-8545
▁sober	-8546
▁tiger	-8547
▁loyalty	-8548
▁functions	-8549
▁magically	-8550
bye	-8551
cend	-8552
▁drops	-8553
▁portrayed	-8554
▁Unfortunately	-8555
AC	-8556
hop	-8557
▁brutal	-8558
▁factory	-8559
▁rapidly	-8560
▁triggered	-8561
▁tube	-8562
▁alter	-8563
▁Muslim	-8564
▁Sounds	-8565
▁housing	-8566
▁alternate	-8567
▁cognitive	-8568
▁streaming	-8569
pres	-8570
▁toes	-8571
▁incompet	-8572
▁PM	-8573
▁bart	-8574
▁cage	-8575
▁London	-8576
▁devast	-8577
▁fixing	-8578
▁raising	-8579
▁lovely	-8580
▁shadow	-8581
▁returned	-8582
uel	-8583
▁SH	-8584
▁Lou	-8585
▁tack	-8586
▁forth	-8587
▁joint	-8588
▁trivial	-8589
▁monsters	-8590
uge	-8591
▁aqu	-8592
stand	-8593
▁Mary	-8594
▁fier	-8595
▁veter	-8596
▁propag	-8597
▁clarity	-8598
▁ignorant	-8599
▁dominance	-8600
▁Wr	-8601
▁Iran	-8602
▁cocon	-8603
▁lawyers	-8604
▁immortal	-8605
ya	-8606
▁skelet	-8607
▁sketch	-8608
▁overrated	-8609
▁suggested	-8610
▁developing	-8611
▁supporters	-8612
inks	-8613
▁Ken	-8614
▁ups	-8615
▁chase	-8616
▁bleeding	-8617
▁additional	-8618
▁Idk	-8619
▁Mount	-8620
▁Quest	-8621
▁eight	-8622
▁warrant	-8623
▁retirement	-8624
iat	-8625
▁ME	-8626
oust	-8627
▁Mike	-8628
▁fruits	-8629
▁isolation	-8630
▁NE	-8631
▁CEO	-8632
▁bob	-8633
▁extent	-8634
▁biology	-8635
▁lacking	-8636
▁strategies	-8637
▁threatening	-8638
roit	-8639
▁hype	-8640
▁transp	-8641
▁sausage	-8642
▁wasting	-8643
▁claiming	-8644
▁extensive	-8645
▁Check	-8646
imental	-8647
▁remake	-8648
▁condoms	-8649
▁millenn	-8650
▁trusted	-8651
▁addition	-8652
▁50%	-8653
▁Cre	-8654
▁gag	-8655
▁gor	-8656
▁Paul	-8657
▁aged	-8658
illance	-8659
▁volcan	-8660
▁battles	-8661
▁principle	-8662
▁encountered	-8663
▁Hi	-8664
udge	-8665
▁Simps	-8666
▁audit	-8667
▁gloves	-8668
▁resulting	-8669
▁unhealthy	-8670
▁28	-8671
cher	-8672
ilst	-8673
kins	-8674
▁Run	-8675
▁Say	-8676
raine	-8677
▁logo	-8678
ermans	-8679
▁groom	-8680
▁shall	-8681
▁counts	-8682
▁elected	-8683
istically	-8684
▁requirements	-8685
AL	-8686
got	-8687
han	-8688
▁hunt	-8689
▁awards	-8690
▁conduct	-8691
▁courses	-8692
▁reckless	-8693
▁surrounded	-8694
▁yo	-8695
eman	-8696
▁taco	-8697
player	-8698
sexual	-8699
▁democracy	-8700
▁fires	-8701
▁slogan	-8702
▁passionate	-8703
▁Sn	-8704
▁Food	-8705
▁bass	-8706
▁pyram	-8707
▁shiny	-8708
▁<	-8709
viet	-8710
▁Den	-8711
▁lip	-8712
▁drew	-8713
reland	-8714
▁fewer	-8715
▁monkey	-8716
▁safely	-8717
▁surviv	-8718
▁equality	-8719
▁hardware	-8720
▁Holy	-8721
▁jerk	-8722
▁rescue	-8723
▁electrical	-8724
pol	-8725
▁Mart	-8726
▁bump	-8727
▁altogether	-8728
▁contradict	-8729
unts	-8730
embers	-8731
▁codes	-8732
▁manual	-8733
▁skinny	-8734
▁winner	-8735
.'	-8736
▁Fin	-8737
▁lou	-8738
ockey	-8739
plain	-8740
lasses	-8741
▁Peter	-8742
▁damaged	-8743
▁publicly	-8744
▁criticism	-8745
▁ingredient	-8746
▁misinformation	-8747
otch	-8748
▁Mag	-8749
▁Mill	-8750
▁deck	-8751
▁stub	-8752
▁wasnt	-8753
▁frequent	-8754
game	-8755
▁sed	-8756
▁village	-8757
▁entitled	-8758
▁diversity	-8759
▁volunteer	-8760
▁billionaire	-8761
▁discrimination	-8762
▁uh	-8763
ooks	-8764
people	-8765
▁jacket	-8766
▁deleted	-8767
▁deliber	-8768
▁pokemon	-8769
▁Kong	-8770
▁symp	-8771
▁crust	-8772
▁whist	-8773
▁communism	-8774
▁pineapple	-8775
▁reporting	-8776
▁ALL	-8777
▁Tur	-8778
▁fer	-8779
emy	-8780
▁OF	-8781
▁cuz	-8782
▁nin	-8783
▁hams	-8784
▁State	-8785
▁exhib	-8786
▁raped	-8787
▁Street	-8788
▁shares	-8789
▁british	-8790
▁citizen	-8791
▁heritage	-8792
▁paranoid	-8793
▁beneficial	-8794
▁respectful	-8795
▁Ep	-8796
▁catast	-8797
▁defeat	-8798
▁Looking	-8799
▁engineer	-8800
▁inspired	-8801
▁answering	-8802
▁destroying	-8803
gent	-8804
▁Plan	-8805
▁backst	-8806
▁believing	-8807
▁documents	-8808
▁proceeded	-8809
▁phenomenon	-8810
▁90%	-8811
oline	-8812
▁troll	-8813
▁entity	-8814
▁estate	-8815
▁largest	-8816
▁threats	-8817
▁recorded	-8818
▁reducing	-8819
▁represents	-8820
ILL	-8821
was	-8822
▁Iron	-8823
▁viral	-8824
▁canada	-8825
▁paralle	-8826
▁chemicals	-8827
CH	-8828
▁bf	-8829
▁Cru	-8830
▁Satan	-8831
▁agent	-8832
▁captain	-8833
▁shallow	-8834
▁procrast	-8835
▁accidents	-8836
▁alcoholic	-8837
▁underwater	-8838
OM	-8839
▁pops	-8840
▁slap	-8841
▁halluc	-8842
▁Walmart	-8843
▁chasing	-8844
▁provided	-8845
▁squirrel	-8846
▁introduce	-8847
▁relatives	-8848
▁compassion	-8849
Fi	-8850
▁Roman	-8851
▁Social	-8852
▁grilled	-8853
▁toothbrush	-8854
cover	-8855
rogen	-8856
▁Tech	-8857
▁2020,	-8858
▁warri	-8859
▁orient	-8860
▁brilliant	-8861
yo	-8862
200	-8863
asts	-8864
▁List	-8865
intendo	-8866
▁agency	-8867
▁rising	-8868
▁Washing	-8869
▁helicop	-8870
▁sibling	-8871
▁contrast	-8872
eping	-8873
▁clip	-8874
minded	-8875
▁airpl	-8876
▁cashier	-8877
▁covering	-8878
nox	-8879
▁ly	-8880
▁Pop	-8881
▁vap	-8882
opoly	-8883
▁drain	-8884
▁responded	-8885
▁worthless	-8886
▁originally	-8887
▁photograph	-8888
▁HD	-8889
▁Mal	-8890
▁Too	-8891
agonist	-8892
▁slower	-8893
▁absurdity	-8894
▁interrupt	-8895
hot	-8896
▁raz	-8897
▁Sunday	-8898
▁revenue	-8899
▁sidewalk	-8900
▁Uk	-8901
ipper	-8902
ansion	-8903
▁ambul	-8904
▁tacos	-8905
▁tissue	-8906
▁anticip	-8907
ml	-8908
uk	-8909
grad	-8910
▁Ter	-8911
▁cav	-8912
▁wand	-8913
▁campus	-8914
AskReddit	-8915
part	-8916
when	-8917
▁Tri	-8918
cling	-8919
▁fairy	-8920
▁glorifies	-8921
▁minecraft	-8922
▁positions	-8923
RR	-8924
▁fee	-8925
▁dare	-8926
▁exit	-8927
▁Willi	-8928
▁conqu	-8929
▁indie	-8930
▁pussy	-8931
▁invite	-8932
▁December	-8933
▁impression	-8934
▁overwhelmed	-8935
raq	-8936
▁dorm	-8937
▁lord	-8938
▁semi	-8939
▁blown	-8940
inction	-8941
▁backpack	-8942
15	-8943
▁ri	-8944
▁mud	-8945
▁vel	-8946
accept	-8947
▁Light	-8948
▁fiber	-8949
▁karen	-8950
▁liquor	-8951
▁injured	-8952
▁allergic	-8953
bec	-8954
▁bik	-8955
▁Dude	-8956
▁frag	-8957
▁prose	-8958
▁attrib	-8959
▁kicking	-8960
▁addicted	-8961
▁investing	-8962
bh	-8963
▁switched	-8964
▁percentage	-8965
kill	-8966
▁THAT	-8967
▁chef	-8968
inding	-8969
▁passes	-8970
▁triang	-8971
▁conform	-8972
▁landlord	-8973
▁association	-8974
edy	-8975
ffe	-8976
sle	-8977
enders	-8978
▁coins	-8979
▁nutri	-8980
friendly	-8981
▁invasion	-8982
▁produced	-8983
▁IM	-8984
front	-8985
wikipedia	-8986
▁bullying	-8987
orney	-8988
state	-8989
▁dull	-8990
▁molec	-8991
▁laying	-8992
▁convert	-8993
▁fastest	-8994
▁motorcy	-8995
▁nuanced	-8996
▁Mod	-8997
▁Nic	-8998
aline	-8999
▁mainly	-9000
▁Remember	-9001
▁musician	-9002
▁signature	-9003
▁territory	-9004
100	-9005
ari	-9006
hen	-9007
omas	-9008
▁follows	-9009
▁sunglasses	-9010
exp	-9011
jpg	-9012
ras	-9013
words	-9014
▁outs	-9015
eoples	-9016
solete	-9017
▁banks	-9018
▁sheep	-9019
▁swing	-9020
▁bloody	-9021
▁calend	-9022
▁formed	-9023
▁wizard	-9024
building	-9025
mer	-9026
teen	-9027
writ	-9028
▁Okay	-9029
▁cord	-9030
▁vari	-9031
▁plague	-9032
▁technique	-9033
▁scru	-9034
▁narrow	-9035
▁Captain	-9036
▁articles	-9037
▁chickens	-9038
▁mattress	-9039
▁satisfaction	-9040
ipt	-9041
▁Spr	-9042
▁ere	-9043
arest	-9044
icken	-9045
▁troub	-9046
▁wrist	-9047
▁absorb	-9048
▁replied	-9049
xit	-9050
▁HR	-9051
▁sir	-9052
▁wid	-9053
icago	-9054
▁zoom	-9055
▁steam	-9056
▁unhappy	-9057
▁ridiculously	-9058
▁Ev	-9059
core	-9060
▁jer	-9061
class	-9062
▁fond	-9063
▁tuna	-9064
▁beats	-9065
▁compat	-9066
▁punish	-9067
▁domestic	-9068
▁opponent	-9069
▁broadcast	-9070
TV	-9071
▁Abs	-9072
▁outrage	-9073
▁wrapped	-9074
▁classroom	-9075
▁commitment	-9076
▁surveillance	-9077
▁Gar	-9078
▁idk	-9079
balls	-9080
▁coat	-9081
▁circles	-9082
▁mortality	-9083
▁passengers	-9084
▁exploitation	-9085
med	-9086
oli	-9087
will	-9088
found	-9089
▁isnt	-9090
▁merc	-9091
active	-9092
berries	-9093
▁Island	-9094
▁empire	-9095
▁iPhone	-9096
▁sacrifice	-9097
!)	-9098
dad	-9099
amel	-9100
▁Thr	-9101
odies	-9102
▁Fast	-9103
olving	-9104
▁suits	-9105
▁Gordon	-9106
▁begins	-9107
▁pirate	-9108
▁Part	-9109
▁slave	-9110
▁feminine	-9111
▁anonymous	-9112
▁lightning	-9113
▁comparison	-9114
▁authorities	-9115
harm	-9116
▁Dog	-9117
▁centuries	-9118
▁remaining	-9119
▁intentions	-9120
▁thoughtful	-9121
45	-9122
▁afric	-9123
▁antib	-9124
▁disgu	-9125
▁denial	-9126
▁doesnt	-9127
▁solved	-9128
▁harmony	-9129
▁mushrooms	-9130
▁corruption	-9131
mel	-9132
inci	-9133
▁sheet	-9134
▁thigh	-9135
▁litter	-9136
▁theirs	-9137
▁healing	-9138
▁casually	-9139
mn	-9140
▁bru	-9141
▁dozen	-9142
▁utter	-9143
▁Scient	-9144
▁savory	-9145
▁digging	-9146
▁dreaming	-9147
▁previously	-9148
IF	-9149
bad	-9150
▁coin	-9151
▁plug	-9152
▁Sleep	-9153
aborate	-9154
▁Western	-9155
▁nowadays	-9156
▁spaghetti	-9157
▁competitive	-9158
▁environments	-9159
▁ww	-9160
▁Viet	-9161
▁Fellow	-9162
▁abused	-9163
▁fallen	-9164
▁singer	-9165
▁references	-9166
sec	-9167
ingle	-9168
isher	-9169
▁rated	-9170
▁sushi	-9171
▁units	-9172
▁rooted	-9173
▁charger	-9174
▁upgrade	-9175
▁extension	-9176
▁surroundings	-9177
ombs	-9178
▁Bell	-9179
common	-9180
ements	-9181
American	-9182
rational	-9183
▁Clinton	-9184
▁ashamed	-9185
75	-9186
dis	-9187
resp	-9188
▁Eat	-9189
▁dat	-9190
▁bean	-9191
▁rail	-9192
▁loses	-9193
▁mexic	-9194
▁mosqu	-9195
itivity	-9196
▁incent	-9197
▁alright	-9198
▁Microsoft	-9199
yme	-9200
▁26	-9201
▁puns	-9202
▁worries	-9203
▁participate	-9204
7.	-9205
ji	-9206
▁36	-9207
elic	-9208
iche	-9209
▁NYC	-9210
▁urge	-9211
▁Under	-9212
▁Office	-9213
▁southern	-9214
▁graduated	-9215
▁disrespect	-9216
▁politician	-9217
▁cooperation	-9218
/20	-9219
ape	-9220
▁HE	-9221
▁mc	-9222
▁owe	-9223
▁pause	-9224
▁editing	-9225
▁premium	-9226
▁investig	-9227
▁pronunci	-9228
▁fantastic	-9229
▁vegetables	-9230
CD	-9231
▁HA	-9232
▁ree	-9233
oning	-9234
▁shops	-9235
▁spices	-9236
▁whilst	-9237
▁Obviously	-9238
▁groceries	-9239
▁replacement	-9240
▁independence	-9241
▁pc	-9242
greg	-9243
▁Greek	-9244
▁cared	-9245
▁apples	-9246
▁atheist	-9247
▁clarify	-9248
▁martial	-9249
▁emo	-9250
charge	-9251
▁armed	-9252
▁fence	-9253
hearted	-9254
through	-9255
▁Humans	-9256
▁honesty	-9257
▁grateful	-9258
▁infamous	-9259
▁protecting	-9260
HS	-9261
ocks	-9262
▁Tim	-9263
hable	-9264
▁curs	-9265
▁mins	-9266
▁marks	-9267
▁pumped	-9268
▁judging	-9269
▁achieved	-9270
▁referred	-9271
▁substances	-9272
PG	-9273
▁Rec	-9274
irable	-9275
▁recre	-9276
▁forcing	-9277
▁observe	-9278
▁solving	-9279
▁threads	-9280
▁networks	-9281
9,	-9282
▁VR	-9283
andy	-9284
▁End	-9285
inent	-9286
▁Fred	-9287
▁bubble	-9288
▁stimul	-9289
▁timing	-9290
▁wheels	-9291
▁Mexican	-9292
▁reports	-9293
▁sentences	-9294
▁IQ	-9295
onde	-9296
▁sum	-9297
▁conce	-9298
▁fluid	-9299
▁compete	-9300
▁twisted	-9301
▁protected	-9302
▁scientist	-9303
▁productive	-9304
▁suggesting	-9305
▁involvement	-9306
ias	-9307
▁ER	-9308
They	-9309
rary	-9310
▁Sun	-9311
neath	-9312
umble	-9313
▁nicely	-9314
▁History	-9315
▁autonomy	-9316
▁unattractive	-9317
,""	-9318
cap	-9319
oll	-9320
igan	-9321
▁Luck	-9322
▁puppy	-9323
▁pedoph	-9324
▁obsolete	-9325
iser	-9326
▁spam	-9327
▁Happy	-9328
▁bride	-9329
▁slice	-9330
▁cleaner	-9331
▁Saturday	-9332
▁revealing	-9333
oos	-9334
▁ze	-9335
agues	-9336
▁dildo	-9337
▁hairy	-9338
▁ratio	-9339
▁haircut	-9340
▁regions	-9341
▁whiskey	-9342
▁promoting	-9343
▁Del	-9344
amine	-9345
▁rust	-9346
igious	-9347
▁Olymp	-9348
▁kicks	-9349
▁creamy	-9350
▁divided	-9351
aco	-9352
▁Kids	-9353
▁fist	-9354
▁pace	-9355
▁angle	-9356
▁austral	-9357
▁password	-9358
▁timeless	-9359
▁intensity	-9360
▁discipline	-9361
rance	-9362
▁Floyd	-9363
▁overs	-9364
▁solely	-9365
▁slavery	-9366
▁reminder	-9367
▁conflicts	-9368
Al	-9369
hea	-9370
aved	-9371
eties	-9372
▁YOUR	-9373
▁cups	-9374
▁sore	-9375
▁tutor	-9376
▁feeding	-9377
▁joining	-9378
▁session	-9379
dog	-9380
net	-9381
▁GO	-9382
▁MS	-9383
▁hub	-9384
▁fever	-9385
▁towns	-9386
▁humili	-9387
▁refund	-9388
▁distress	-9389
▁resonates	-9390
▁Definitely	-9391
▁Washington	-9392
▁restrictions	-9393
oul	-9394
▁Rad	-9395
▁ghosts	-9396
▁comeback	-9397
▁scenarios	-9398
▁worldwide	-9399
▁University	-9400
▁questionable	-9401
iping	-9402
▁blur	-9403
▁Instagram	-9404
▁hopefully	-9405
▁overlooked	-9406
▁appreciated	-9407
▁awkwardness	-9408
Sh	-9409
sex	-9410
yster	-9411
▁fork	-9412
▁Mother	-9413
▁Spider	-9414
▁accents	-9415
▁realised	-9416
▁sticking	-9417
▁afternoon	-9418
▁confirmed	-9419
Man	-9420
▁Bon	-9421
▁grows	-9422
▁magaz	-9423
▁prize	-9424
▁ramen	-9425
▁College	-9426
▁decides	-9427
▁playful	-9428
▁vanilla	-9429
EM	-9430
edge	-9431
▁$500	-9432
▁boil	-9433
▁orgas	-9434
▁stead	-9435
atholic	-9436
▁publish	-9437
▁propaganda	-9438
▁AS	-9439
▁90'	-9440
▁naz	-9441
owned	-9442
▁Ross	-9443
▁cans	-9444
▁rope	-9445
▁Dream	-9446
▁synth	-9447
▁studied	-9448
▁attempts	-9449
▁politely	-9450
▁disconnect	-9451
▁efficiency	-9452
▁irrational	-9453
▁underneath	-9454
▁application	-9455
▁SU	-9456
▁sab	-9457
ilize	-9458
arians	-9459
▁ginger	-9460
▁entering	-9461
mao	-9462
▁HU	-9463
arring	-9464
▁souls	-9465
▁trill	-9466
▁Wikipedia	-9467
.?	-9468
▁nerve	-9469
▁vault	-9470
▁intric	-9471
▁morbid	-9472
▁unrelated	-9473
▁Thanksgiving	-9474
▁Dick	-9475
▁dece	-9476
▁yoga	-9477
▁passive	-9478
▁stations	-9479
▁highschool	-9480
▁interviews	-9481
▁uncertainty	-9482
▁surprisingly	-9483
pa	-9484
olly	-9485
▁Ell	-9486
▁Tor	-9487
normal	-9488
▁porch	-9489
osystem	-9490
▁mutual	-9491
▁directions	-9492
▁industrial	-9493
▁supernatural	-9494
▁AL	-9495
▁Talk	-9496
▁clash	-9497
▁scand	-9498
▁buttons	-9499
▁manifest	-9500
ults	-9501
▁evo	-9502
esteem	-9503
ptember	-9504
▁poster	-9505
▁crunchy	-9506
▁guaranteed	-9507
▁acknowledging	-9508
oop	-9509
zzy	-9510
▁PT	-9511
▁esc	-9512
▁Went	-9513
▁lobs	-9514
▁peoples	-9515
▁roommates	-9516
▁determined	-9517
bert	-9518
▁Elect	-9519
▁stocks	-9520
▁decline	-9521
ena	-9522
ollow	-9523
▁rick	-9524
▁brick	-9525
▁etern	-9526
▁vow	-9527
▁Italy	-9528
▁obliv	-9529
▁trave	-9530
▁compre	-9531
▁breasts	-9532
▁severely	-9533
▁ignorance	-9534
▁q	-9535
zil	-9536
proof	-9537
▁Pink	-9538
▁bend	-9539
▁span	-9540
istent	-9541
▁shady	-9542
▁outfit	-9543
▁meetings	-9544
▁diagnosis	-9545
▁mechanical	-9546
▁mold	-9547
arters	-9548
▁chunk	-9549
▁ecosystem	-9550
▁comforting	-9551
▁pi	-9552
ayer	-9553
upid	-9554
press	-9555
▁lion	-9556
▁slipp	-9557
rolling	-9558
▁owning	-9559
▁snakes	-9560
▁brushing	-9561
▁ancestors	-9562
▁qualified	-9563
▁depressing	-9564
▁inevitable	-9565
▁simplicity	-9566
▁preferences	-9567
▁distribution	-9568
uffy	-9569
▁rif	-9570
▁hipp	-9571
▁lick	-9572
ission	-9573
▁hesit	-9574
▁Robert	-9575
▁darker	-9576
▁resort	-9577
▁happier	-9578
▁morally	-9579
▁ordinary	-9580
▁ambulance	-9581
▁CA	-9582
ccer	-9583
ville	-9584
▁rank	-9585
▁plates	-9586
▁Germans	-9587
▁cartoons	-9588
▁locations	-9589
oca	-9590
yrim	-9591
bbing	-9592
▁Coke	-9593
▁theft	-9594
emption	-9595
▁nurses	-9596
▁profits	-9597
▁warming	-9598
▁parallel	-9599
▁eliminate	-9600
▁rect	-9601
▁fears	-9602
▁knight	-9603
▁spanish	-9604
-6	-9605
▁Eas	-9606
▁fox	-9607
▁tempt	-9608
▁reflex	-9609
▁stepped	-9610
▁counting	-9611
▁justified	-9612
▁irrelevant	-9613
worthy	-9614
▁Darth	-9615
ignific	-9616
▁hiking	-9617
▁tomato	-9618
▁anyways	-9619
▁twitter	-9620
▁delivered	-9621
▁followers	-9622
▁2021	-9623
▁Ther	-9624
▁dipl	-9625
▁vinegar	-9626
▁presents	-9627
▁principal	-9628
opes	-9629
▁McC	-9630
▁wreck	-9631
▁galaxy	-9632
▁portal	-9633
▁recess	-9634
▁sanity	-9635
▁exception	-9636
▁gathering	-9637
▁Ted	-9638
▁Fore	-9639
▁Stra	-9640
▁yawn	-9641
▁beers	-9642
▁boots	-9643
▁burnt	-9644
athetic	-9645
▁blocked	-9646
▁dominant	-9647
▁99%	-9648
stick	-9649
idency	-9650
▁liver	-9651
▁trains	-9652
▁spectrum	-9653
▁obsession	-9654
▁Australian	-9655
▁MY	-9656
▁gem	-9657
▁goat	-9658
▁narc	-9659
▁entry	-9660
▁shaking	-9661
▁analysis	-9662
anges	-9663
▁frost	-9664
▁hassle	-9665
▁liking	-9666
▁authentic	-9667
▁shoulders	-9668
▁philosophy	-9669
▁interpretation	-9670
odd	-9671
▁Sal	-9672
▁Top	-9673
▁ber	-9674
otton	-9675
overs	-9676
plete	-9677
▁slee	-9678
▁Angel	-9679
rospect	-9680
▁farming	-9681
▁messing	-9682
▁revealed	-9683
udi	-9684
▁bc	-9685
rous	-9686
▁LOT	-9687
atell	-9688
▁lame	-9689
▁neat	-9690
▁owns	-9691
▁carried	-9692
▁designs	-9693
▁sisters	-9694
fr	-9695
▁Mel	-9696
▁vess	-9697
▁Kanye	-9698
▁angel	-9699
▁wears	-9700
▁viable	-9701
▁desires	-9702
▁opposed	-9703
▁quietly	-9704
▁pondered	-9705
▁thorough	-9706
▁timeline	-9707
▁Smith	-9708
▁cents	-9709
▁Empire	-9710
▁hiring	-9711
▁hockey	-9712
▁twenty	-9713
▁handled	-9714
▁pointing	-9715
For	-9716
▁tl	-9717
▁uk	-9718
etical	-9719
▁dealt	-9720
▁Unless	-9721
▁inspect	-9722
▁nipples	-9723
▁romance	-9724
▁applying	-9725
wan	-9726
oids	-9727
issors	-9728
making	-9729
▁Psych	-9730
▁oblig	-9731
▁latest	-9732
▁leather	-9733
▁symbols	-9734
▁neighbour	-9735
▁passenger	-9736
▁homosexual	-9737
▁destination	-9738
fy	-9739
▁Ext	-9740
▁Pan	-9741
▁Ret	-9742
▁haw	-9743
udden	-9744
▁April	-9745
▁goose	-9746
▁Cheese	-9747
▁continu	-9748
▁musicians	-9749
BO	-9750
era	-9751
▁1%	-9752
▁mamm	-9753
▁booze	-9754
▁irony	-9755
▁rebell	-9756
▁charisma	-9757
▁regional	-9758
▁tracking	-9759
▁trolling	-9760
▁container	-9761
One	-9762
▁Rac	-9763
names	-9764
▁Const	-9765
▁slide	-9766
▁Almost	-9767
▁lesbian	-9768
▁explores	-9769
▁responding	-9770
igma	-9771
▁Pay	-9772
rison	-9773
▁hips	-9774
▁mice	-9775
▁moms	-9776
▁genres	-9777
▁closing	-9778
▁patience	-9779
▁payments	-9780
8,	-9781
osal	-9782
▁Rom	-9783
▁poo	-9784
▁Live	-9785
▁jewel	-9786
▁expand	-9787
▁possess	-9788
▁exclusive	-9789
▁privilege	-9790
9.	-9791
▁Fun	-9792
▁Iraq	-9793
▁Jews	-9794
iences	-9795
▁roots	-9796
▁skull	-9797
▁spons	-9798
▁compon	-9799
▁reform	-9800
▁stuffed	-9801
▁trailer	-9802
▁parenting	-9803
SE	-9804
hr	-9805
▁1:	-9806
▁spy	-9807
▁zoo	-9808
comes	-9809
▁Yout	-9810
▁leaf	-9811
▁clone	-9812
▁parks	-9813
▁cooler	-9814
▁bullets	-9815
▁prescription	-9816
8.	-9817
▁Cap	-9818
▁Fut	-9819
▁lava	-9820
▁caffe	-9821
▁alphab	-9822
▁installed	-9823
▁manufactur	-9824
▁AP	-9825
▁NP	-9826
▁Ty	-9827
▁Sol	-9828
fredda	-9829
ocaust	-9830
▁handy	-9831
▁lovers	-9832
▁Ireland	-9833
▁nearest	-9834
Americans	-9835
▁Absolute	-9836
▁animated	-9837
▁freezing	-9838
▁protocol	-9839
▁logically	-9840
▁diab	-9841
▁flew	-9842
▁EVERY	-9843
▁packed	-9844
▁monthly	-9845
▁moisture	-9846
5%	-9847
inse	-9848
uced	-9849
▁mim	-9850
▁Nazi	-9851
▁Wall	-9852
▁idol	-9853
▁riff	-9854
▁kil	-9855
▁bulk	-9856
▁rhythm	-9857
▁upside	-9858
▁easiest	-9859
▁analyzing	-9860
ita	-9861
dies	-9862
orph	-9863
▁glue	-9864
▁mint	-9865
▁union	-9866
▁rhymes	-9867
▁collaps	-9868
▁insects	-9869
▁catching	-9870
▁invention	-9871
▁alpha	-9872
▁exhaust	-9873
▁psyched	-9874
iti	-9875
▁Latin	-9876
▁retain	-9877
▁calendar	-9878
▁rejected	-9879
▁supportive	-9880
isl	-9881
▁nod	-9882
capes	-9883
▁ampl	-9884
▁octop	-9885
▁autistic	-9886
▁category	-9887
▁hurricane	-9888
▁Fox	-9889
▁Inc	-9890
▁rug	-9891
cakes	-9892
▁Putin	-9893
▁bonus	-9894
▁schol	-9895
▁ultra	-9896
▁foster	-9897
▁manipul	-9898
▁humorous	-9899
▁EU	-9900
▁vice	-9901
▁grasp	-9902
▁sizes	-9903
▁smash	-9904
eworthy	-9905
▁oldest	-9906
▁haunted	-9907
▁Although	-9908
▁Consider	-9909
▁societies	-9910
▁Personally	-9911
▁intervention	-9912
IV	-9913
adget	-9914
▁oral	-9915
▁tale	-9916
▁contag	-9917
▁heroes	-9918
▁immense	-9919
▁predators	-9920
▁literature	-9921
olt	-9922
ghan	-9923
▁DVD	-9924
▁ONE	-9925
▁Win	-9926
▁Army	-9927
▁dealer	-9928
▁troops	-9929
▁stabbed	-9930
▁wireless	-9931
▁preferred	-9932
▁paranormal	-9933
▁established	-9934
backs	-9935
▁Nope	-9936
▁airl	-9937
iating	-9938
▁burns	-9939
▁twins	-9940
▁annoys	-9941
▁cables	-9942
▁chairs	-9943
▁kissing	-9944
▁outdoor	-9945
▁appeared	-9946
▁Literally	-9947
▁SC	-9948
▁ja	-9949
anor	-9950
fare	-9951
▁150	-9952
▁dose	-9953
▁naming	-9954
▁towels	-9955
▁flipped	-9956
▁finances	-9957
▁screamed	-9958
▁shouting	-9959
▁versatile	-9960
▁3,	-9961
▁Wi	-9962
ooby	-9963
shine	-9964
▁Beat	-9965
▁mere	-9966
▁Korean	-9967
▁fuckin	-9968
▁insert	-9969
▁listed	-9970
▁stroke	-9971
▁chronic	-9972
▁pleasant	-9973
ala	-9974
rus	-9975
ania	-9976
star	-9977
▁Lawy	-9978
▁Power	-9979
▁semester	-9980
▁speeding	-9981
▁Dave	-9982
▁Made	-9983
▁gray	-9984
▁infant	-9985
▁unlock	-9986
▁chewing	-9987
▁goodbye	-9988
▁agreement	-9989
ran	-9990
▁coal	-9991
irting	-9992
market	-9993
▁museum	-9994
▁cleaned	-9995
▁craving	-9996
▁defined	-9997
▁selection	-9998
youtu	-9999
▁hazard	-10000
▁kitten	-10001
▁creator	-10002
▁credits	-10003
▁workout	-10004
▁caffeine	-10005
▁demanding	-10006
▁consideration	-10007
izon	-10008
▁Ast	-10009
▁Ear	-10010
▁aer	-10011
▁fry	-10012
ooked	-10013
▁Brown	-10014
▁Jones	-10015
▁vagina	-10016
▁desktop	-10017
▁graduate	-10018
▁insecure	-10019
sha	-10020
even	-10021
▁coup	-10022
▁dwar	-10023
▁10,000	-10024
▁headed	-10025
▁permanently	-10026
DS	-10027
oln	-10028
▁48	-10029
olds	-10030
▁Kid	-10031
▁jet	-10032
bacco	-10033
anuary	-10034
lights	-10035
lifting	-10036
▁bananas	-10037
▁punched	-10038
▁soldier	-10039
▁Whenever	-10040
ignificant	-10041
▁pronunciation	-10042
CE	-10043
▁grip	-10044
writing	-10045
▁engines	-10046
▁ideology	-10047
▁upstairs	-10048
▁animation	-10049
▁discussed	-10050
ila	-10051
pit	-10052
ched	-10053
hift	-10054
▁cube	-10055
igslist	-10056
▁Sudden	-10057
▁tactic	-10058
▁voters	-10059
▁tobacco	-10060
▁lighting	-10061
▁substant	-10062
▁distinctive	-10063
ARK	-10064
And	-10065
cript	-10066
▁smoked	-10067
▁twists	-10068
▁extinct	-10069
▁nonsense	-10070
▁vulnerability	-10071
FO	-10072
▁Bro	-10073
▁Hun	-10074
▁Tot	-10075
pless	-10076
▁sits	-10077
orship	-10078
▁bombs	-10079
▁float	-10080
cluding	-10081
roverts	-10082
▁wooden	-10083
▁fragile	-10084
▁franchise	-10085
▁instincts	-10086
▁replacing	-10087
▁statements	-10088
bob	-10089
▁maps	-10090
▁Money	-10091
▁lucid	-10092
▁Prince	-10093
▁halfway	-10094
▁smarter	-10095
▁communist	-10096
Ye	-10097
za	-10098
▁shelf	-10099
ilation	-10100
▁copies	-10101
▁Besides	-10102
▁demonst	-10103
▁misinter	-10104
▁discovery	-10105
▁elections	-10106
▁precision	-10107
▁efficiently	-10108
▁kara	-10109
▁rats	-10110
umbers	-10111
▁clubs	-10112
▁orbit	-10113
▁unset	-10114
ortality	-10115
▁eternity	-10116
▁innovation	-10117
▁organizations	-10118
FL	-10119
Can	-10120
itz	-10121
▁bib	-10122
▁farts	-10123
▁prohib	-10124
▁reboot	-10125
▁boiling	-10126
▁priority	-10127
▁reaching	-10128
▁capitalism	-10129
▁recommended	-10130
▁Asia	-10131
▁Bond	-10132
▁Moon	-10133
▁Supp	-10134
▁pengu	-10135
▁chores	-10136
▁cruise	-10137
▁pickup	-10138
▁sticky	-10139
▁balanced	-10140
▁syndrome	-10141
▁supported	-10142
best	-10143
▁vary	-10144
vember	-10145
▁dicks	-10146
▁dread	-10147
▁Actually	-10148
▁controls	-10149
▁disabled	-10150
▁concentration	-10151
bird	-10152
epsi	-10153
▁ankle	-10154
▁grain	-10155
▁santa	-10156
▁laughs	-10157
▁sponge	-10158
▁unreal	-10159
▁wolves	-10160
▁attorney	-10161
may	-10162
▁3)	-10163
uled	-10164
wall	-10165
▁Cle	-10166
thood	-10167
▁Baby	-10168
▁rack	-10169
▁Bruce	-10170
▁dumps	-10171
▁flour	-10172
▁writer	-10173
▁entered	-10174
▁karaoke	-10175
▁returns	-10176
▁crossing	-10177
▁numerous	-10178
▁apologize	-10179
▁moderators	-10180
non	-10181
▁Ore	-10182
▁Fort	-10183
▁camps	-10184
▁grief	-10185
▁chicks	-10186
▁portion	-10187
▁disasters	-10188
▁hospitals	-10189
▁sexuality	-10190
▁vegetarian	-10191
nut	-10192
▁laz	-10193
child	-10194
ovies	-10195
▁prev	-10196
▁baked	-10197
▁cryst	-10198
▁grant	-10199
▁penal	-10200
▁locals	-10201
▁reprodu	-10202
▁indicate	-10203
▁OS	-10204
▁Mass	-10205
▁caut	-10206
▁soccer	-10207
▁shaving	-10208
▁texting	-10209
▁athletes	-10210
▁directed	-10211
Yes	-10212
phr	-10213
▁Sad	-10214
ugust	-10215
uesday	-10216
▁fatal	-10217
ractical	-10218
▁humming	-10219
xim	-10220
aska	-10221
▁carr	-10222
▁seal	-10223
▁Learn	-10224
▁claws	-10225
▁drill	-10226
▁behave	-10227
▁loaded	-10228
▁calculate	-10229
▁contagious	-10230
▁presentation	-10231
sl	-10232
▁Kar	-10233
▁NASA	-10234
▁assets	-10235
▁harmon	-10236
▁harvest	-10237
▁classics	-10238
▁genetics	-10239
▁catastroph	-10240
Bl	-10241
KE	-10242
amm	-10243
rug	-10244
▁ANY	-10245
▁cuc	-10246
icket	-10247
somet	-10248
▁Link	-10249
▁cues	-10250
▁slim	-10251
▁lonel	-10252
▁reset	-10253
▁paperwork	-10254
▁recognized	-10255
ATE	-10256
▁GPS	-10257
visor	-10258
▁Each	-10259
esters	-10260
▁acted	-10261
▁dried	-10262
▁errors	-10263
▁injust	-10264
▁coconut	-10265
▁distant	-10266
▁enhance	-10267
▁insults	-10268
▁strings	-10269
▁bathrooms	-10270
cil	-10271
eto	-10272
phe	-10273
inky	-10274
▁lil	-10275
actic	-10276
▁eerie	-10277
▁Avatar	-10278
▁Church	-10279
▁guards	-10280
▁demands	-10281
▁precious	-10282
▁elaborate	-10283
rig	-10284
▁$4	-10285
orus	-10286
▁lap	-10287
▁brow	-10288
▁cliff	-10289
▁betray	-10290
▁announce	-10291
▁quantity	-10292
perm	-10293
▁10%	-10294
▁inh	-10295
▁lbs	-10296
▁pap	-10297
gling	-10298
▁coma	-10299
▁hello	-10300
▁extrem	-10301
▁revers	-10302
▁verify	-10303
▁chamber	-10304
▁germany	-10305
▁suspend	-10306
acceptable	-10307
▁acceptance	-10308
pool	-10309
chair	-10310
▁Were	-10311
ulsive	-10312
▁$1000	-10313
▁overd	-10314
▁radar	-10315
▁Health	-10316
▁unwanted	-10317
▁perfection	-10318
▁productivity	-10319
wind	-10320
▁caps	-10321
▁eyel	-10322
▁Years	-10323
▁stack	-10324
▁biting	-10325
▁coding	-10326
▁Detroit	-10327
▁sounding	-10328
▁stickers	-10329
TS	-10330
▁til	-10331
▁Stay	-10332
▁dash	-10333
▁sells	-10334
▁evolve	-10335
▁needle	-10336
▁breakdown	-10337
▁destructive	-10338
17	-10339
high	-10340
ogen	-10341
▁STD	-10342
▁Come	-10343
rained	-10344
▁Doesn	-10345
▁appet	-10346
▁dense	-10347
▁connot	-10348
▁floors	-10349
▁speeds	-10350
▁Sanders	-10351
▁variation	-10352
▁connecting	-10353
▁unfortunately	-10354
500	-10355
dep	-10356
▁Mid	-10357
▁Half	-10358
▁cozy	-10359
▁deer	-10360
▁olds	-10361
▁soil	-10362
▁void	-10363
▁sequence	-10364
▁investigate	-10365
zone	-10366
▁aye	-10367
▁ren	-10368
▁rod	-10369
▁Xbox	-10370
▁buds	-10371
▁arrange	-10372
▁opposing	-10373
irs	-10374
oni	-10375
▁bust	-10376
▁Later	-10377
▁cyber	-10378
▁tires	-10379
▁washed	-10380
▁crushed	-10381
▁aggression	-10382
▁industries	-10383
GE	-10384
bru	-10385
reek	-10386
▁Ram	-10387
▁mayo	-10388
▁Using	-10389
▁explod	-10390
▁construct	-10391
▁nutrients	-10392
▁remembers	-10393
▁flexibility	-10394
▁sax	-10395
storm	-10396
▁deme	-10397
▁Hawai	-10398
▁speaks	-10399
▁convinc	-10400
▁worship	-10401
▁managing	-10402
▁mandatory	-10403
▁3:	-10404
ulse	-10405
fting	-10406
ourse	-10407
▁ours	-10408
▁sail	-10409
acific	-10410
▁bless	-10411
▁lobby	-10412
umbling	-10413
▁deploy	-10414
▁nerves	-10415
▁Redditor	-10416
▁mortgage	-10417
▁assistant	-10418
▁achievement	-10419
▁Oct	-10420
▁tid	-10421
▁Elon	-10422
▁nine	-10423
rition	-10424
▁dairy	-10425
▁flies	-10426
▁thirst	-10427
▁rainbow	-10428
▁cannibal	-10429
▁similarly	-10430
5.	-10431
hm	-10432
yon	-10433
mble	-10434
ober	-10435
▁bid	-10436
▁bun	-10437
▁Given	-10438
▁Nazis	-10439
▁incons	-10440
▁repost	-10441
▁attempted	-10442
▁healthier	-10443
▁poisoning	-10444
MM	-10445
di	-10446
olas	-10447
▁Cut	-10448
▁joe	-10449
▁Better	-10450
▁Doctor	-10451
▁Soviet	-10452
▁Sweden	-10453
▁anthem	-10454
▁refres	-10455
▁goddamn	-10456
▁outlets	-10457
▁scissors	-10458
▁wildlife	-10459
6,	-10460
▁VP	-10461
uded	-10462
▁bats	-10463
▁pursu	-10464
▁sniff	-10465
▁umbre	-10466
isation	-10467
▁stones	-10468
jud	-10469
▁GF	-10470
▁Vi	-10471
▁anat	-10472
▁lmao	-10473
▁beaten	-10474
▁tragic	-10475
▁showers	-10476
▁cautious	-10477
▁haunting	-10478
▁repeating	-10479
amas	-10480
▁Cost	-10481
▁drum	-10482
▁studio	-10483
▁avoided	-10484
▁wouldnt	-10485
deg	-10486
onda	-10487
▁Ins	-10488
▁mph	-10489
liest	-10490
▁peak	-10491
boards	-10492
powers	-10493
▁thrill	-10494
▁cousins	-10495
▁monkeys	-10496
▁slipped	-10497
▁blocking	-10498
▁shocking	-10499
▁strategic	-10500
▁videogame	-10501
▁Bus	-10502
▁Lol	-10503
▁Pen	-10504
oston	-10505
▁mock	-10506
▁cater	-10507
▁greet	-10508
because	-10509
▁deserved	-10510
▁educated	-10511
▁legendary	-10512
▁temperatures	-10513
NT	-10514
oret	-10515
▁Lee	-10516
▁eru	-10517
▁lin	-10518
shirt	-10519
ython	-10520
▁pist	-10521
arrhea	-10522
▁tower	-10523
▁unint	-10524
▁lowest	-10525
▁satell	-10526
▁ethical	-10527
▁relates	-10528
▁Assuming	-10529
▁Suddenly	-10530
▁diamonds	-10531
▁procedures	-10532
▁unsettling	-10533
0.	-10534
ella	-10535
▁seed	-10536
▁evokes	-10537
▁verbal	-10538
▁Club	-10539
▁Tony	-10540
▁foss	-10541
▁rant	-10542
▁ward	-10543
▁moose	-10544
▁cherry	-10545
▁corona	-10546
▁hardly	-10547
▁slaves	-10548
▁aircraft	-10549
▁ordering	-10550
▁outcomes	-10551
▁educational	-10552
▁DC	-10553
from	-10554
math	-10555
nies	-10556
▁tbh	-10557
▁wolf	-10558
iolets	-10559
▁jumps	-10560
▁instit	-10561
▁pranks	-10562
▁density	-10563
▁hallway	-10564
▁inspiration	-10565
IR	-10566
▁wax	-10567
▁bald	-10568
itches	-10569
▁adren	-10570
▁loser	-10571
▁meditation	-10572
▁mentioning	-10573
▁possession	-10574
▁transmission	-10575
gb	-10576
wife	-10577
▁Hor	-10578
pants	-10579
▁BARK	-10580
▁awhile	-10581
▁sharks	-10582
▁largely	-10583
▁premise	-10584
▁expressing	-10585
▁helicopter	-10586
73	-10587
sey	-10588
▁400	-10589
aland	-10590
style	-10591
▁dads	-10592
▁diff	-10593
▁hats	-10594
▁toilets	-10595
▁innocence	-10596
hyd	-10597
▁BLM	-10598
there	-10599
▁Pick	-10600
▁tril	-10601
gender	-10602
▁Story	-10603
▁Young	-10604
▁Family	-10605
▁mothers	-10606
▁passage	-10607
▁Question	-10608
▁intricate	-10609
▁distancing	-10610
▁existential	-10611
erals	-10612
oming	-10613
▁Left	-10614
▁flush	-10615
▁REALLY	-10616
▁senses	-10617
▁superf	-10618
▁viewed	-10619
▁vocals	-10620
▁Profess	-10621
▁heading	-10622
▁feminism	-10623
▁refreshing	-10624
▁assumptions	-10625
But	-10626
date	-10627
▁2-3	-10628
▁dear	-10629
▁sund	-10630
▁tanks	-10631
▁gadget	-10632
▁statue	-10633
▁violate	-10634
▁athletic	-10635
▁climbing	-10636
▁horrific	-10637
▁reasoning	-10638
▁principles	-10639
▁4.	-10640
OOOO	-10641
▁jaw	-10642
gebra	-10643
▁Conf	-10644
▁abst	-10645
▁turb	-10646
▁acquaint	-10647
▁finishing	-10648
▁maintaining	-10649
cup	-10650
aple	-10651
foot	-10652
rich	-10653
aylor	-10654
ustom	-10655
▁nugg	-10656
fucker	-10657
inator	-10658
worker	-10659
▁Jerry	-10660
▁sting	-10661
▁router	-10662
▁graphic	-10663
▁terrorist	-10664
▁Christians	-10665
ONE	-10666
Just	-10667
▁Dun	-10668
mares	-10669
▁Boom	-10670
▁patri	-10671
▁petty	-10672
▁kidney	-10673
▁openly	-10674
▁Thrones	-10675
▁shipping	-10676
▁critically	-10677
▁loneliness	-10678
▁meaningless	-10679
pent	-10680
piece	-10681
unken	-10682
▁roses	-10683
▁Students	-10684
▁exercises	-10685
▁inherently	-10686
▁overweight	-10687
city	-10688
▁fert	-10689
▁grat	-10690
incoln	-10691
▁restr	-10692
▁Johnson	-10693
▁perpetu	-10694
▁subjects	-10695
SAP	-10696
▁32	-10697
▁Aw	-10698
▁Bow	-10699
ached	-10700
▁hive	-10701
bender	-10702
▁hints	-10703
▁forums	-10704
▁tasked	-10705
▁mindset	-10706
▁capabilities	-10707
Ex	-10708
LD	-10709
eks	-10710
oup	-10711
rat	-10712
ugs	-10713
▁29	-10714
mond	-10715
▁Ree	-10716
▁typo	-10717
issions	-10718
▁accord	-10719
▁Science	-10720
▁eternal	-10721
▁lasting	-10722
▁offense	-10723
▁thinker	-10724
▁toaster	-10725
▁quitting	-10726
▁improvement	-10727
nie	-10728
enry	-10729
▁Toy	-10730
amsay	-10731
▁enorm	-10732
▁therm	-10733
▁versa	-10734
iquette	-10735
olesome	-10736
▁sleepy	-10737
▁finance	-10738
▁fortune	-10739
▁mankind	-10740
▁maximum	-10741
▁managers	-10742
▁uncommon	-10743
▁switching	-10744
▁gy	-10745
▁Van	-10746
▁bes	-10747
▁tin	-10748
acher	-10749
▁Louis	-10750
▁realm	-10751
▁Thomas	-10752
▁tasted	-10753
▁trillion	-10754
▁investigation	-10755
cs	-10756
▁ot	-10757
avor	-10758
qual	-10759
▁dign	-10760
▁shifts	-10761
▁steady	-10762
▁agility	-10763
▁updated	-10764
tech	-10765
▁Age	-10766
▁cuis	-10767
▁ramp	-10768
▁tire	-10769
▁Keanu	-10770
▁asian	-10771
▁grape	-10772
▁remov	-10773
lection	-10774
▁ethics	-10775
▁chapter	-10776
▁toddler	-10777
▁September	-10778
hes	-10779
mph	-10780
▁temp	-10781
▁skept	-10782
▁tends	-10783
▁dumped	-10784
▁flirting	-10785
▁releases	-10786
▁suffered	-10787
▁traveled	-10788
▁kidnapped	-10789
▁beforehand	-10790
▁masturbating	-10791
GO	-10792
Me	-10793
▁CS	-10794
▁Die	-10795
▁gel	-10796
nails	-10797
▁soph	-10798
▁locks	-10799
▁inferior	-10800
▁approached	-10801
▁protagonist	-10802
adow	-10803
▁nas	-10804
▁Hong	-10805
▁cunt	-10806
▁naive	-10807
▁pipes	-10808
▁bricks	-10809
▁browse	-10810
▁airplane	-10811
▁announced	-10812
▁engineers	-10813
run	-10814
▁UN	-10815
▁Jon	-10816
▁Ven	-10817
▁wtf	-10818
▁Brad	-10819
▁Song	-10820
▁ster	-10821
elfare	-10822
▁razor	-10823
▁backup	-10824
▁anytime	-10825
▁cardboard	-10826
▁unacceptable	-10827
Fuck	-10828
▁Stan	-10829
handed	-10830
▁Hello	-10831
▁renew	-10832
▁Aliens	-10833
▁division	-10834
▁Canadians	-10835
▁returning	-10836
▁prioritizing	-10837
sun	-10838
▁Hel	-10839
assic	-10840
every	-10841
▁leak	-10842
▁sett	-10843
▁Greece	-10844
▁superv	-10845
▁constit	-10846
▁quantum	-10847
▁textures	-10848
▁disappointment	-10849
vity	-10850
▁Las	-10851
▁Uni	-10852
▁fog	-10853
▁sooner	-10854
▁custody	-10855
▁dragons	-10856
▁excuses	-10857
▁torrent	-10858
▁slippery	-10859
▁sufficient	-10860
HT	-10861
▁OR	-10862
▁nit	-10863
▁ASAP	-10864
▁Wood	-10865
▁bites	-10866
▁spoil	-10867
▁legisl	-10868
▁Vietnam	-10869
▁labeled	-10870
▁tornado	-10871
▁flexible	-10872
▁struggled	-10873
▁remembering	-10874
▁intellectual	-10875
uber	-10876
▁Rome	-10877
▁stem	-10878
▁crawl	-10879
▁outer	-10880
▁overl	-10881
▁hatred	-10882
vernment	-10883
▁oneself	-10884
▁donations	-10885
▁embarrassment	-10886
Re	-10887
cat	-10888
rac	-10889
ommod	-10890
utter	-10891
▁accus	-10892
▁amend	-10893
▁unple	-10894
▁nutrit	-10895
▁popped	-10896
▁entrance	-10897
▁sessions	-10898
▁criminals	-10899
▁impressed	-10900
▁consequence	-10901
▁HO	-10902
▁Imm	-10903
▁Vir	-10904
about	-10905
pending	-10906
▁Eminem	-10907
▁subway	-10908
▁upbeat	-10909
▁located	-10910
▁atheists	-10911
▁billions	-10912
▁downvote	-10913
▁japanese	-10914
▁civilians	-10915
fo	-10916
UST	-10917
ags	-10918
▁Sen	-10919
▁ais	-10920
anity	-10921
▁accum	-10922
▁lasted	-10923
▁narciss	-10924
▁stranded	-10925
▁weekends	-10926
▁geography	-10927
▁operating	-10928
▁expectation	-10929
phy	-10930
▁avoc	-10931
▁swap	-10932
▁Blood	-10933
▁hmmmm	-10934
▁knuck	-10935
actions	-10936
▁Chicago	-10937
▁trilogy	-10938
▁viruses	-10939
▁Children	-10940
▁accommod	-10941
▁comedian	-10942
▁watermel	-10943
▁expressions	-10944
▁implications	-10945
▁mr	-10946
▁Lege	-10947
▁dystop	-10948
▁paradox	-10949
▁incorpor	-10950
▁demograph	-10951
▁wrestling	-10952
13	-10953
mes	-10954
▁DI	-10955
agan	-10956
▁Fed	-10957
▁Nat	-10958
▁tan	-10959
▁Cold	-10960
▁deem	-10961
▁bandw	-10962
▁daddy	-10963
▁furry	-10964
▁lyric	-10965
▁spawn	-10966
▁fierce	-10967
▁pilots	-10968
▁stated	-10969
▁tunnel	-10970
▁bullies	-10971
▁courage	-10972
▁exploit	-10973
▁jewelry	-10974
▁consumed	-10975
▁occurred	-10976
▁embracing	-10977
▁religions	-10978
▁convincing	-10979
iar	-10980
▁6'	-10981
ripp	-10982
▁Pri	-10983
▁nerd	-10984
▁topp	-10985
pelled	-10986
▁corpse	-10987
▁borders	-10988
▁offline	-10989
▁ruining	-10990
▁congress	-10991
▁tomatoes	-10992
▁describes	-10993
nn	-10994
help	-10995
west	-10996
▁cit	-10997
ilant	-10998
itated	-10999
▁penny	-11000
▁regime	-11001
▁hamster	-11002
▁detailed	-11003
▁astronaut	-11004
▁orientation	-11005
14	-11006
18	-11007
hin	-11008
▁$6	-11009
cool	-11010
rust	-11011
▁Mons	-11012
▁Gener	-11013
▁draft	-11014
▁stems	-11015
▁traps	-11016
noxious	-11017
▁searched	-11018
▁statistics	-11019
Un	-11020
job	-11021
uto	-11022
▁Party	-11023
▁hoard	-11024
▁actress	-11025
▁horribly	-11026
▁behaviour	-11027
▁presidency	-11028
▁IP	-11029
▁Arm	-11030
▁dub	-11031
▁Book	-11032
▁dive	-11033
▁binge	-11034
▁Britain	-11035
▁skilled	-11036
▁admitted	-11037
▁hesitant	-11038
▁moderate	-11039
▁According	-11040
▁automatic	-11041
burn	-11042
after	-11043
▁gems	-11044
undant	-11045
▁Force	-11046
▁firef	-11047
▁sends	-11048
defense	-11049
▁burrit	-11050
▁louder	-11051
▁priest	-11052
▁worthy	-11053
▁italian	-11054
▁careless	-11055
▁employment	-11056
hi	-11057
▁Ill	-11058
uster	-11059
▁heck	-11060
regard	-11061
usions	-11062
▁chess	-11063
▁ditch	-11064
▁clouds	-11065
▁explode	-11066
▁viewers	-11067
▁allergies	-11068
▁exhausted	-11069
▁Absolutely	-11070
▁immortality	-11071
▁problematic	-11072
▁controversial	-11073
ulf	-11074
vol	-11075
▁UP	-11076
▁kore	-11077
▁NEVER	-11078
▁sperm	-11079
▁metric	-11080
▁refers	-11081
▁remark	-11082
▁Nintendo	-11083
▁attacking	-11084
▁complement	-11085
axx	-11086
pot	-11087
▁Care	-11088
▁duct	-11089
▁pens	-11090
▁Brazil	-11091
▁cinema	-11092
▁intact	-11093
▁diarrhea	-11094
▁spinning	-11095
▁adrenaline	-11096
▁motorcycle	-11097
tail	-11098
▁Know	-11099
▁THIS	-11100
▁boun	-11101
▁mute	-11102
izable	-11103
▁Shrek	-11104
▁antics	-11105
▁cotton	-11106
▁county	-11107
▁welfare	-11108
astically	-11109
▁bankrupt	-11110
▁restroom	-11111
▁sunlight	-11112
▁talented	-11113
▁purchased	-11114
▁violation	-11115
▁limitations	-11116
▁recognizing	-11117
fits	-11118
hist	-11119
oria	-11120
▁gee	-11121
▁mit	-11122
bucks	-11123
white	-11124
▁rides	-11125
▁barrel	-11126
▁summon	-11127
▁experiments	-11128
▁unrealistic	-11129
▁misinterpret	-11130
aver	-11131
▁outta	-11132
▁scars	-11133
▁scoot	-11134
▁troph	-11135
▁strain	-11136
▁throws	-11137
▁Current	-11138
▁expired	-11139
▁refuses	-11140
▁elephant	-11141
▁digestive	-11142
▁Republicans	-11143
ev	-11144
die	-11145
▁Cash	-11146
▁PTSD	-11147
▁foam	-11148
▁font	-11149
▁phob	-11150
▁Small	-11151
▁Three	-11152
▁navig	-11153
▁saves	-11154
▁correl	-11155
▁FUCKING	-11156
▁January	-11157
▁Congress	-11158
▁technological	-11159
NN	-11160
▁CP	-11161
▁Atl	-11162
riers	-11163
weird	-11164
▁mixt	-11165
▁punk	-11166
▁Paris	-11167
▁loads	-11168
▁rhyme	-11169
▁sunny	-11170
▁zones	-11171
▁Luckily	-11172
▁careers	-11173
▁reacted	-11174
▁surgeon	-11175
▁rejection	-11176
▁disability	-11177
▁fascinated	-11178
▁noticeable	-11179
▁traditions	-11180
fu	-11181
uter	-11182
▁Leg	-11183
lical	-11184
▁ammo	-11185
screen	-11186
▁ashes	-11187
▁scarce	-11188
▁sparks	-11189
▁yogurt	-11190
▁archite	-11191
▁happily	-11192
▁everytime	-11193
▁favorites	-11194
64	-11195
FW	-11196
▁@	-11197
arah	-11198
ctor	-11199
▁Fer	-11200
▁Civil	-11201
▁Pizza	-11202
▁blows	-11203
▁comfy	-11204
▁Ukraine	-11205
▁comedic	-11206
▁wholesome	-11207
▁superpowers	-11208
▁>	-11209
bro	-11210
otine	-11211
▁Adam	-11212
▁Aust	-11213
▁Wild	-11214
▁blah	-11215
▁confer	-11216
▁crispy	-11217
▁Stephen	-11218
▁smelled	-11219
▁enormous	-11220
[?][?][?][?]	-11221
▁pm	-11222
gled	-11223
▁Jose	-11224
▁itch	-11225
ospher	-11226
▁snugg	-11227
ambling	-11228
artment	-11229
ativity	-11230
friends	-11231
▁donating	-11232
▁princess	-11233
▁downstairs	-11234
aph	-11235
ingu	-11236
▁Ari	-11237
▁dip	-11238
cturn	-11239
▁Walk	-11240
▁nest	-11241
atched	-11242
▁March	-11243
▁Metal	-11244
▁Brexit	-11245
▁tablet	-11246
▁Suicide	-11247
▁writers	-11248
▁figuring	-11249
▁mustache	-11250
▁australia	-11251
▁detective	-11252
▁inconvenience	-11253
To	-11254
▁Ice	-11255
▁Ult	-11256
▁nude	-11257
▁rear	-11258
▁Color	-11259
▁basics	-11260
▁boredom	-11261
▁earning	-11262
▁opponents	-11263
▁skeptical	-11264
GA	-11265
???	-11266
▁$200	-11267
▁dental	-11268
▁paired	-11269
▁submar	-11270
▁minority	-11271
▁punished	-11272
▁scholars	-11273
▁algorithm	-11274
▁presented	-11275
▁contributing	-11276
▁unemployment	-11277
/0	-11278
On	-11279
inkle	-11280
▁Cage	-11281
▁intr	-11282
▁Kevin	-11283
▁herbs	-11284
▁pairs	-11285
▁shine	-11286
▁shits	-11287
unction	-11288
▁approx	-11289
▁knocking	-11290
▁Europeans	-11291
▁obnoxious	-11292
▁operation	-11293
▁producing	-11294
▁substitute	-11295
▁multiplayer	-11296
▁catastrophic	-11297
▁recommendations	-11298
psy	-11299
spr	-11300
tens	-11301
▁Jan	-11302
▁Jul	-11303
aires	-11304
▁News	-11305
bruary	-11306
▁scores	-11307
▁cracked	-11308
▁flights	-11309
▁targeted	-11310
▁aesthetic	-11311
▁reduction	-11312
▁unpleasant	-11313
▁achievements	-11314
RI	-11315
fil	-11316
gued	-11317
oler	-11318
pher	-11319
tuce	-11320
▁Ban	-11321
▁RPG	-11322
▁Mach	-11323
▁ache	-11324
▁pizz	-11325
▁recon	-11326
▁Dragon	-11327
▁heated	-11328
▁fitness	-11329
▁printed	-11330
▁saddest	-11331
▁graduation	-11332
▁Ol	-11333
ders	-11334
food	-11335
▁Gay	-11336
▁jur	-11337
▁Bush	-11338
▁gamer	-11339
▁sonic	-11340
ductive	-11341
▁Wonder	-11342
▁circumc	-11343
▁trading	-11344
▁alphabet	-11345
▁homophob	-11346
▁showering	-11347
▁professors	-11348
▁interacting	-11349
▁distractions	-11350
bet	-11351
gha	-11352
mat	-11353
only	-11354
▁197	-11355
innam	-11356
▁emer	-11357
▁arrog	-11358
▁grapes	-11359
▁parked	-11360
▁purely	-11361
▁lobster	-11362
▁lovable	-11363
▁demeanor	-11364
▁forehead	-11365
▁insignificant	-11366
YY	-11367
iana	-11368
itos	-11369
▁Inf	-11370
ician	-11371
movie	-11372
▁Video	-11373
▁fluffy	-11374
▁legends	-11375
▁pirates	-11376
▁newspaper	-11377
▁AR	-11378
▁80'	-11379
▁Secret	-11380
▁flames	-11381
▁refuge	-11382
▁static	-11383
▁Straight	-11384
▁creators	-11385
▁stereotyp	-11386
▁attachment	-11387
▁earthquake	-11388
▁psychopath	-11389
Ok	-11390
pat	-11391
ilia	-11392
onia	-11393
▁Jen	-11394
▁impe	-11395
▁Jimmy	-11396
▁Rings	-11397
▁merge	-11398
▁riots	-11399
innamon	-11400
instein	-11401
▁asteroid	-11402
▁illusion	-11403
zos	-11404
ouses	-11405
▁Head	-11406
▁atom	-11407
▁cass	-11408
▁evac	-11409
▁exams	-11410
▁sneeze	-11411
▁November	-11412
▁packages	-11413
▁wherever	-11414
▁masculine	-11415
▁resolution	-11416
▁hypothetical	-11417
HD	-11418
▁SS	-11419
Yeah	-11420
umin	-11421
▁DON	-11422
▁Wed	-11423
▁crop	-11424
▁aging	-11425
▁brave	-11426
▁datab	-11427
▁vomit	-11428
▁McDonalds	-11429
▁oblivious	-11430
▁adventures	-11431
▁regulation	-11432
▁..	-11433
eday	-11434
hell	-11435
inis	-11436
attle	-11437
organ	-11438
incere	-11439
▁nephe	-11440
▁reass	-11441
▁Adults	-11442
▁struck	-11443
▁essence	-11444
▁kittens	-11445
▁apparent	-11446
▁district	-11447
▁practicing	-11448
▁accountable	-11449
▁conditioner	-11450
▁hal	-11451
▁pad	-11452
burger	-11453
▁obese	-11454
▁pleas	-11455
▁robber	-11456
comments	-11457
▁lifting	-11458
▁accuracy	-11459
▁globally	-11460
▁practically	-11461
MS	-11462
ERE	-11463
▁Wick	-11464
▁asse	-11465
▁cray	-11466
▁tits	-11467
onders	-11468
▁bland	-11469
▁chili	-11470
▁enfor	-11471
▁wiped	-11472
▁diplom	-11473
▁tweets	-11474
▁Married	-11475
▁android	-11476
▁boomers	-11477
▁mistaken	-11478
▁priorities	-11479
▁repetition	-11480
ARS	-11481
▁Hy	-11482
cuss	-11483
▁hid	-11484
ximity	-11485
▁Worst	-11486
▁flower	-11487
▁hearts	-11488
▁Youtube	-11489
▁shotgun	-11490
▁withdrawal	-11491
▁incompetent	-11492
ggs	-11493
ser	-11494
▁27	-11495
oths	-11496
▁Aka	-11497
▁Fem	-11498
▁Fur	-11499
▁Rog	-11500
▁hose	-11501
▁voca	-11502
▁leash	-11503
▁rinse	-11504
usement	-11505
▁chorus	-11506
▁gently	-11507
▁orgasm	-11508
▁organic	-11509
▁adoption	-11510
▁atmospher	-11511
▁employers	-11512
▁transported	-11513
eeee	-11514
▁Mer	-11515
▁Tre	-11516
ample	-11517
worth	-11518
▁rose	-11519
▁Weird	-11520
▁Andrew	-11521
▁Knight	-11522
▁Sponge	-11523
▁earned	-11524
▁turtle	-11525
▁bastard	-11526
▁interse	-11527
▁pickles	-11528
▁removal	-11529
▁sticker	-11530
▁psychiat	-11531
▁forgetting	-11532
▁gatherings	-11533
▁smartphones	-11534
OC	-11535
mod	-11536
ogw	-11537
▁MO	-11538
step	-11539
▁Lib	-11540
▁Name	-11541
▁idle	-11542
▁lend	-11543
nicity	-11544
utional	-11545
▁aligns	-11546
▁marked	-11547
▁prince	-11548
▁scares	-11549
▁forming	-11550
▁damaging	-11551
▁addictive	-11552
▁releasing	-11553
▁addressing	-11554
▁misconception	-11555
cake	-11556
▁1/2	-11557
▁Taco	-11558
......	-11559
▁lions	-11560
▁Master	-11561
▁Morgan	-11562
▁amazon	-11563
▁cruelty	-11564
▁operate	-11565
▁facility	-11566
▁encourages	-11567
▁manufacturing	-11568
FC	-11569
ppel	-11570
▁Roy	-11571
▁pope	-11572
▁prey	-11573
▁unin	-11574
▁Flash	-11575
▁ranch	-11576
▁Source	-11577
▁denied	-11578
▁floppy	-11579
▁bothers	-11580
▁diction	-11581
▁kingdom	-11582
▁puzzles	-11583
▁consumer	-11584
otect	-11585
▁Been	-11586
▁Liber	-11587
▁chalk	-11588
▁Matrix	-11589
▁candle	-11590
▁peeing	-11591
▁buddies	-11592
▁dresses	-11593
▁rubbing	-11594
▁driveway	-11595
▁nightmares	-11596
▁manipulative	-11597
▁unconventional	-11598
ooh	-11599
ello	-11600
scar	-11601
umsy	-11602
▁____	-11603
▁adul	-11604
▁hier	-11605
▁Union	-11606
cending	-11607
fulness	-11608
▁finale	-11609
▁traged	-11610
▁academic	-11611
▁paycheck	-11612
▁Democrats	-11613
▁suggestion	-11614
▁translation	-11615
orr	-11616
tes	-11617
bris	-11618
nite	-11619
▁Sir	-11620
▁Damn	-11621
▁lime	-11622
▁slut	-11623
▁Fight	-11624
▁beast	-11625
▁rifle	-11626
▁stale	-11627
▁agents	-11628
▁gaining	-11629
▁miracle	-11630
▁weights	-11631
▁drowning	-11632
▁outdoors	-11633
▁proximity	-11634
▁difficulty	-11635
▁mechanisms	-11636
16	-11637
ION	-11638
gie	-11639
agle	-11640
▁Eve	-11641
▁bail	-11642
▁Billy	-11643
▁facil	-11644
ughters	-11645
▁chased	-11646
▁smiled	-11647
▁mirrors	-11648
▁printing	-11649
▁stupidity	-11650
▁approaching	-11651
did	-11652
▁eu	-11653
html	-11654
itty	-11655
▁Und	-11656
abeth	-11657
rence	-11658
▁Musk	-11659
liness	-11660
▁purse	-11661
▁Scooby	-11662
▁batman	-11663
▁labels	-11664
▁vampire	-11665
▁costumes	-11666
▁Hopefully	-11667
▁survivors	-11668
▁appreciation	-11669
▁PR	-11670
pron	-11671
unes	-11672
▁BBQ	-11673
ersey	-11674
riger	-11675
▁futur	-11676
▁Trying	-11677
▁casino	-11678
▁fright	-11679
▁pickle	-11680
▁caution	-11681
▁Breaking	-11682
▁disguise	-11683
▁overpower	-11684
▁suspended	-11685
▁technologies	-11686
TC	-11687
bud	-11688
▁IV	-11689
▁Tes	-11690
cific	-11691
▁anch	-11692
mitted	-11693
otland	-11694
▁Engine	-11695
▁comics	-11696
▁wished	-11697
▁instagram	-11698
▁guidelines	-11699
▁superficial	-11700
oped	-11701
uity	-11702
acies	-11703
illas	-11704
▁Gary	-11705
imated	-11706
▁Games	-11707
▁agend	-11708
▁genoc	-11709
▁monet	-11710
▁theres	-11711
▁bending	-11712
▁deposit	-11713
▁drunken	-11714
▁Russians	-11715
▁packaging	-11716
▁committing	-11717
▁influences	-11718
▁BS	-11719
▁Jud	-11720
▁bio	-11721
▁Cook	-11722
▁abol	-11723
▁stiff	-11724
▁robbed	-11725
▁forgive	-11726
ghanistan	-11727
▁decrease	-11728
▁numbness	-11729
▁skeleton	-11730
▁stepping	-11731
▁Otherwise	-11732
▁continues	-11733
▁commenting	-11734
▁enthusiasm	-11735
▁!	-11736
onard	-11737
▁Jong	-11738
incarn	-11739
▁Franc	-11740
▁yield	-11741
solving	-11742
▁Skyrim	-11743
▁Though	-11744
▁debates	-11745
▁donated	-11746
▁persons	-11747
▁molecules	-11748
▁democratic	-11749
▁inequality	-11750
▁complexities	-11751
ulk	-11752
omes	-11753
▁sew	-11754
habit	-11755
▁1990	-11756
▁trop	-11757
▁sweater	-11758
▁podcasts	-11759
▁tendency	-11760
▁waitress	-11761
▁tolerance	-11762
▁explicitly	-11763
/7	-11764
alin	-11765
▁vig	-11766
oxide	-11767
▁pale	-11768
▁10/10	-11769
▁blade	-11770
▁frank	-11771
▁rival	-11772
▁Marvel	-11773
▁dysfun	-11774
▁Tuesday	-11775
▁anatomy	-11776
▁reduces	-11777
▁sarcasm	-11778
▁northern	-11779
▁consistency	-11780
▁civilizations	-11781
▁Ra	-11782
▁3-4	-11783
▁aca	-11784
birth	-11785
▁Ryan	-11786
esthes	-11787
▁demons	-11788
▁harness	-11789
▁delicate	-11790
▁supports	-11791
▁dependent	-11792
▁impractical	-11793
oven	-11794
▁CIA	-11795
▁Dutch	-11796
▁cripp	-11797
▁August	-11798
▁theyre	-11799
▁confuse	-11800
▁dignity	-11801
▁administration	-11802
-7	-11803
Jo	-11804
big	-11805
▁LO	-11806
0000	-11807
▁IRL	-11808
▁kim	-11809
arium	-11810
▁Athe	-11811
▁Vict	-11812
icular	-11813
▁blink	-11814
▁dunno	-11815
▁cardio	-11816
▁trolls	-11817
▁assigned	-11818
▁notebook	-11819
/2	-11820
mus	-11821
ubs	-11822
bows	-11823
ford	-11824
▁Sca	-11825
▁sod	-11826
▁Hans	-11827
▁Nick	-11828
▁agha	-11829
▁butts	-11830
▁advise	-11831
▁equals	-11832
▁donation	-11833
▁probability	-11834
▁combinations	-11835
IM	-11836
mony	-11837
actor	-11838
▁Note	-11839
▁Offic	-11840
▁packs	-11841
ogwarts	-11842
onnaise	-11843
▁matrix	-11844
▁Lawyers	-11845
▁gorilla	-11846
▁lettuce	-11847
▁radical	-11848
▁strikes	-11849
▁complaint	-11850
▁replicate	-11851
▁friendships	-11852
▁functioning	-11853
▁importantly	-11854
sur	-11855
▁Aah	-11856
emade	-11857
▁dots	-11858
▁eleg	-11859
▁feas	-11860
▁gimm	-11861
▁warn	-11862
▁Niger	-11863
▁essay	-11864
▁limbs	-11865
▁Battle	-11866
▁Corona	-11867
▁relive	-11868
▁stains	-11869
▁Eastern	-11870
▁drastic	-11871
▁painted	-11872
▁execution	-11873
▁imperfect	-11874
obe	-11875
eria	-11876
▁pole	-11877
▁lists	-11878
▁picks	-11879
▁stain	-11880
▁Making	-11881
▁Reeves	-11882
▁Steven	-11883
▁versus	-11884
▁harming	-11885
▁retired	-11886
▁watches	-11887
▁sunshine	-11888
▁defending	-11889
▁reception	-11890
lee	-11891
▁bunk	-11892
▁Uncle	-11893
▁fuels	-11894
▁noisy	-11895
fferent	-11896
▁Heaven	-11897
▁beside	-11898
▁cosmic	-11899
▁rapper	-11900
▁taller	-11901
▁crashed	-11902
▁sensory	-11903
▁surviving	-11904
▁wikipedia	-11905
▁dedication	-11906
▁Tik	-11907
ennis	-11908
osity	-11909
smart	-11910
▁lamp	-11911
iotics	-11912
▁brace	-11913
▁dodge	-11914
▁ducks	-11915
▁paths	-11916
▁divine	-11917
▁psycho	-11918
▁anarchy	-11919
▁farmers	-11920
▁markets	-11921
▁warfare	-11922
▁portable	-11923
▁terribly	-11924
▁fireworks	-11925
▁satisfied	-11926
bay	-11927
▁5,	-11928
▁5.	-11929
ardv	-11930
gate	-11931
▁Gun	-11932
▁Luc	-11933
▁USD	-11934
obile	-11935
▁lens	-11936
▁slur	-11937
▁flick	-11938
▁Commun	-11939
▁mathem	-11940
▁melted	-11941
▁shovel	-11942
▁penalty	-11943
▁relation	-11944
▁requests	-11945
▁downvoted	-11946
▁devastating	-11947
▁populations	-11948
▁applications	-11949
▁masturbation	-11950
An	-11951
▁ba	-11952
▁USB	-11953
▁goof	-11954
▁tops	-11955
▁horny	-11956
▁races	-11957
cturnal	-11958
▁hyster	-11959
▁occurs	-11960
▁teaches	-11961
▁chatting	-11962
▁illnesses	-11963
▁processed	-11964
▁residents	-11965
▁accountability	-11966
▁Unt	-11967
▁fare	-11968
astics	-11969
▁Break	-11970
▁maple	-11971
▁defies	-11972
▁panties	-11973
▁freshman	-11974
▁mechanic	-11975
▁instructor	-11976
▁photography	-11977
BS	-11978
▁Ha	-11979
home	-11980
▁mmh	-11981
▁Trek	-11982
▁eval	-11983
▁misle	-11984
▁venom	-11985
▁fighter	-11986
something	-11987
▁fleeting	-11988
▁friction	-11989
▁interven	-11990
▁systemic	-11991
▁calculator	-11992
neys	-11993
▁20-	-11994
▁ell	-11995
▁sque	-11996
antern	-11997
▁2020.	-11998
▁Henry	-11999
▁Leave	-12000
▁skate	-12001
▁uncont	-12002
▁commute	-12003
▁crossed	-12004
▁freezer	-12005
▁rethink	-12006
▁varying	-12007
▁villains	-12008
▁preventing	-12009
▁(2	-12010
▁Gri	-12011
▁Tro	-12012
▁ric	-12013
Every	-12014
▁beds	-12015
▁unst	-12016
▁veloc	-12017
▁Hillary	-12018
▁etiquette	-12019
▁intimidating	-12020
▁misunderstood	-12021
och	-12022
laim	-12023
▁Bay	-12024
▁Vol	-12025
▁clu	-12026
▁sta	-12027
isons	-12028
▁July	-12029
sticks	-12030
▁token	-12031
▁sneaky	-12032
▁Walking	-12033
▁morality	-12034
▁resident	-12035
▁toppings	-12036
▁makeshift	-12037
fa	-12038
▁31	-12039
▁7.	-12040
rimp	-12041
exist	-12042
▁Snow	-12043
▁Teen	-12044
▁crab	-12045
▁oils	-12046
▁palm	-12047
bulary	-12048
▁Cause	-12049
▁babys	-12050
▁forum	-12051
fucking	-12052
▁debris	-12053
▁Patrick	-12054
▁backstory	-12055
▁mentality	-12056
▁rebellion	-12057
!?	-12058
▁Islam	-12059
▁meets	-12060
▁theat	-12061
▁annual	-12062
▁fourth	-12063
▁tender	-12064
▁council	-12065
▁spirits	-12066
▁objective	-12067
▁observing	-12068
▁protesters	-12069
lad	-12070
nHmm	-12071
▁Mem	-12072
ented	-12073
ordan	-12074
▁mete	-12075
aneous	-12076
▁tense	-12077
▁builds	-12078
▁esteem	-12079
▁swords	-12080
bringing	-12081
▁melting	-12082
▁theoret	-12083
▁clueless	-12084
▁daylight	-12085
▁comparing	-12086
▁operations	-12087
▁Christopher	-12088
▁substantial	-12089
osc	-12090
▁BM	-12091
▁Doc	-12092
▁Pur	-12093
sized	-12094
▁Took	-12095
estone	-12096
▁Robin	-12097
▁peers	-12098
▁descend	-12099
▁monolog	-12100
▁relying	-12101
▁contents	-12102
▁crashing	-12103
▁outbreak	-12104
▁promised	-12105
▁breakthrough	-12106
▁lighthearted	-12107
abs	-12108
coin	-12109
▁nan	-12110
throp	-12111
▁arrow	-12112
▁League	-12113
▁magnet	-12114
▁staple	-12115
▁trendy	-12116
▁signing	-12117
▁someday	-12118
▁deciding	-12119
▁preserve	-12120
▁surfaces	-12121
▁overheard	-12122
▁terrorism	-12123
▁attempting	-12124
▁thoroughly	-12125
▁Cow	-12126
▁Div	-12127
▁FOR	-12128
▁Year	-12129
▁flame	-12130
▁decomp	-12131
▁weekly	-12132
▁wiping	-12133
▁unbelie	-12134
▁breeding	-12135
▁humidity	-12136
▁imprison	-12137
▁accurately	-12138
▁protective	-12139
▁sensations	-12140
▁accomplishment	-12141
etes	-12142
ruit	-12143
sell	-12144
exper	-12145
▁aisle	-12146
▁shook	-12147
▁vegans	-12148
▁waters	-12149
▁cuisine	-12150
▁loading	-12151
▁whistle	-12152
▁entirety	-12153
▁impacted	-12154
▁fulfilling	-12155
▁unemployed	-12156
▁advancements	-12157
ref	-12158
▁HP	-12159
▁Fil	-12160
▁ger	-12161
▁lag	-12162
▁Luke	-12163
▁Porn	-12164
antasy	-12165
▁LGBTQ	-12166
▁waist	-12167
▁Ramsay	-12168
▁castle	-12169
▁escaped	-12170
▁regrets	-12171
▁desirable	-12172
▁introspect	-12173
:30	-12174
cot	-12175
fia	-12176
▁64	-12177
itics	-12178
▁Hand	-12179
itudes	-12180
▁panel	-12181
izabeth	-12182
▁Fredda	-12183
▁reveals	-12184
▁immersive	-12185
/3	-12186
All	-12187
show	-12188
▁Wend	-12189
▁dawn	-12190
curity	-12191
▁aardv	-12192
ethical	-12193
▁coffin	-12194
▁hating	-12195
▁jungle	-12196
▁meters	-12197
iversary	-12198
▁Lincoln	-12199
▁constra	-12200
▁Catholic	-12201
▁Superman	-12202
▁pancakes	-12203
▁respected	-12204
▁withstand	-12205
▁ideologies	-12206
▁teleported	-12207
AP	-12208
fol	-12209
▁Lu	-12210
▁Bac	-12211
▁Dar	-12212
grand	-12213
▁lamb	-12214
▁Travel	-12215
▁valued	-12216
breaking	-12217
▁weirdly	-12218
▁downtown	-12219
▁indicator	-12220
▁portrayal	-12221
ali	-12222
owa	-12223
base	-12224
▁Cry	-12225
▁acne	-12226
▁blamed	-12227
▁minors	-12228
▁Friends	-12229
▁rewards	-12230
▁spelled	-12231
▁pressing	-12232
De	-12233
▁51	-12234
yeah	-12235
zilla	-12236
▁Cops	-12237
▁medi	-12238
▁sane	-12239
▁worm	-12240
itating	-12241
▁whatso	-12242
▁Anyways	-12243
▁rehabil	-12244
▁facilities	-12245
▁appointment	-12246
▁atmospheric	-12247
▁specialized	-12248
▁4,	-12249
▁ISP	-12250
▁bron	-12251
▁buys	-12252
▁rumor	-12253
ressive	-12254
▁panels	-12255
▁inherit	-12256
▁receipt	-12257
▁volcano	-12258
▁certific	-12259
▁prevents	-12260
▁discovering	-12261
▁misconceptions	-12262
oad	-12263
call	-12264
▁Navy	-12265
▁lact	-12266
▁Exper	-12267
▁Seems	-12268
▁harry	-12269
▁urine	-12270
ocation	-12271
▁archae	-12272
▁Perhaps	-12273
▁brutality	-12274
mem	-12275
▁Ber	-12276
▁Hob	-12277
▁fel	-12278
itors	-12279
▁Doom	-12280
▁Lost	-12281
▁lung	-12282
▁ping	-12283
▁riot	-12284
family	-12285
▁Cross	-12286
▁blunt	-12287
▁tales	-12288
▁yells	-12289
achment	-12290
▁Animal	-12291
▁mashed	-12292
▁mixing	-12293
▁Richard	-12294
▁Titanic	-12295
▁heavier	-12296
▁rituals	-12297
▁shadows	-12298
▁Simpsons	-12299
▁agencies	-12300
▁ceremony	-12301
▁contacts	-12302
▁smallest	-12303
▁countless	-12304
▁vocabulary	-12305
▁controversy	-12306
-15	-12307
joy	-12308
rue	-12309
una	-12310
bread	-12311
▁Hend	-12312
▁Mind	-12313
▁Open	-12314
▁waff	-12315
▁erase	-12316
▁Boston	-12317
▁Native	-12318
▁oceans	-12319
▁Fallout	-12320
▁Zealand	-12321
▁beaches	-12322
▁squeeze	-12323
▁grounded	-12324
▁organize	-12325
▁bartender	-12326
▁recycling	-12327
▁performing	-12328
-12	-12329
Are	-12330
EEEE	-12331
ingo	-12332
odor	-12333
▁Boys	-12334
▁Mont	-12335
▁reun	-12336
▁sued	-12337
▁whip	-12338
atican	-12339
▁grill	-12340
▁fandom	-12341
▁polish	-12342
▁Indiana	-12343
▁russian	-12344
▁smokers	-12345
▁hopeless	-12346
▁laziness	-12347
▁remotely	-12348
▁askreddit	-12349
▁dishonest	-12350
▁gradually	-12351
▁mythology	-12352
▁preparing	-12353
▁watermelon	-12354
▁whatsoever	-12355
▁compensation	-12356
Your	-12357
chest	-12358
▁2012	-12359
▁Bros	-12360
▁Ford	-12361
▁Must	-12362
▁Prin	-12363
▁Danny	-12364
▁Joker	-12365
▁fucks	-12366
▁index	-12367
icating	-12368
▁recept	-12369
▁critics	-12370
▁exhibit	-12371
▁vitamin	-12372
▁biblical	-12373
▁Everybody	-12374
pha	-12375
▁cm	-12376
▁Saw	-12377
▁dop	-12378
▁jan	-12379
▁lur	-12380
▁tik	-12381
topic	-12382
ucker	-12383
▁mans	-12384
People	-12385
igible	-12386
▁burgl	-12387
▁shred	-12388
▁exceed	-12389
▁reeval	-12390
▁beneath	-12391
▁enthusiasts	-12392
▁masculinity	-12393
hill	-12394
idth	-12395
inos	-12396
meal	-12397
test	-12398
zens	-12399
peror	-12400
▁Card	-12401
▁cone	-12402
▁pric	-12403
▁Build	-12404
▁badge	-12405
▁filth	-12406
connect	-12407
▁Employ	-12408
▁candles	-12409
▁laptops	-12410
▁octopus	-12411
▁warrior	-12412
▁blankets	-12413
▁festival	-12414
▁christian	-12415
▁economics	-12416
▁nutrition	-12417
▁supervisor	-12418
▁upbringing	-12419
▁5'	-12420
jack	-12421
uten	-12422
▁ARE	-12423
▁Dig	-12424
▁jim	-12425
▁Rush	-12426
nesday	-12427
▁Aside	-12428
▁grabs	-12429
▁lease	-12430
▁Advice	-12431
▁Mostly	-12432
▁africa	-12433
▁condes	-12434
▁deemed	-12435
▁novels	-12436
indsight	-12437
▁reincarn	-12438
▁retarded	-12439
▁amusement	-12440
▁drastically	-12441
▁unconscious	-12442
▁willingness	-12443
Pro	-12444
bly	-12445
lda	-12446
bear	-12447
▁Cop	-12448
▁bay	-12449
▁Camp	-12450
▁Stri	-12451
▁disk	-12452
▁Roses	-12453
▁hover	-12454
▁officials	-12455
SS	-12456
itis	-12457
atics	-12458
ratic	-12459
▁hugs	-12460
▁wheat	-12461
▁childish	-12462
▁intentional	-12463
▁BA	-12464
ista	-12465
▁LSD	-12466
▁Jedi	-12467
▁bonds	-12468
ortions	-12469
▁stared	-12470
▁balloon	-12471
▁barrier	-12472
▁fallout	-12473
▁symptom	-12474
▁charming	-12475
▁feasible	-12476
▁gasoline	-12477
▁tropical	-12478
▁umbrella	-12479
▁ethnicity	-12480
▁purchases	-12481
▁storyline	-12482
▁desperation	-12483
▁accomplished	-12484
icon	-12485
▁120	-12486
▁ect	-12487
▁Andy	-12488
▁Kyle	-12489
▁lifes	-12490
▁joints	-12491
▁sealed	-12492
▁unfold	-12493
▁Beatles	-12494
▁algebra	-12495
▁disagre	-12496
awareness	-12497
▁shitting	-12498
▁adaptation	-12499
▁simplistic	-12500
▁prostitution	-12501
eur	-12502
oved	-12503
▁20%	-12504
▁ende	-12505
▁peas	-12506
ophren	-12507
▁Might	-12508
▁bikes	-12509
▁gears	-12510
▁scope	-12511
▁shade	-12512
▁poured	-12513
▁abandon	-12514
▁melanch	-12515
▁nuggets	-12516
▁magazine	-12517
▁describing	-12518
▁immigration	-12519
▁10,	-12520
▁irl	-12521
▁oat	-12522
▁lump	-12523
▁anten	-12524
ionship	-12525
▁survey	-12526
▁apology	-12527
▁delayed	-12528
▁empower	-12529
▁refriger	-12530
▁controller	-12531
▁->	-12532
rums	-12533
▁Eth	-12534
ussie	-12535
▁Sher	-12536
▁feat	-12537
▁tidy	-12538
▁crave	-12539
▁curly	-12540
▁downs	-12541
isexual	-12542
▁exclus	-12543
▁obtain	-12544
▁prepar	-12545
▁killers	-12546
▁adulthood	-12547
▁encouraged	-12548
##	-12549
ua	-12550
%20	-12551
ocal	-12552
▁AHH	-12553
▁Isn	-12554
▁btw	-12555
▁ome	-12556
▁zip	-12557
▁surn	-12558
▁derog	-12559
▁fuzzy	-12560
▁outlet	-12561
▁leaning	-12562
▁tragedy	-12563
▁Williams	-12564
▁gestures	-12565
▁introvert	-12566
▁occasions	-12567
▁published	-12568
▁assignment	-12569
▁classmates	-12570
turn	-12571
▁CAN	-12572
▁bisc	-12573
▁cosm	-12574
▁liar	-12575
▁perf	-12576
▁sher	-12577
udding	-12578
▁Stone	-12579
▁Techn	-12580
▁specs	-12581
▁shells	-12582
▁filters	-12583
▁resolve	-12584
▁occasion	-12585
▁socialism	-12586
DD	-12587
uz	-12588
aza	-12589
ione	-12590
▁Pil	-12591
▁dol	-12592
month	-12593
▁edgy	-12594
▁plun	-12595
▁boner	-12596
▁hella	-12597
▁overp	-12598
▁rally	-12599
ference	-12600
▁Taking	-12601
▁adject	-12602
▁calmly	-12603
▁pistol	-12604
▁recruit	-12605
▁credible	-12606
▁nocturnal	-12607
▁counseling	-12608
▁horrifying	-12609
▁manipulating	-12610
Le	-12611
ourt	-12612
▁dil	-12613
illing	-12614
▁Makes	-12615
▁assess	-12616
▁dozens	-12617
▁heating	-12618
▁approval	-12619
▁depicted	-12620
▁seasoning	-12621
▁compromise	-12622
Who	-12623
awn	-12624
lbs	-12625
▁Los	-12626
▁sug	-12627
count	-12628
▁sack	-12629
▁agric	-12630
▁arbit	-12631
▁canned	-12632
▁clumsy	-12633
▁Chicken	-12634
▁begging	-12635
▁discont	-12636
▁indoors	-12637
▁stunning	-12638
▁convicted	-12639
▁infections	-12640
▁fingernails	-12641
▁observation	-12642
▁conditioning	-12643
▁transformation	-12644
fix	-12645
ura	-12646
▁#1	-12647
▁75	-12648
lamm	-12649
▁PhD	-12650
girls	-12651
▁Cats	-12652
▁Want	-12653
▁squad	-12654
▁blonde	-12655
▁rental	-12656
▁thighs	-12657
▁centers	-12658
▁peppers	-12659
▁hormones	-12660
▁attending	-12661
▁daughters	-12662
▁subscription	-12663
▁individuality	-12664
Go	-12665
▁gau	-12666
ansas	-12667
black	-12668
ellar	-12669
▁Chad	-12670
▁Pope	-12671
▁damp	-12672
ogging	-12673
▁clues	-12674
▁hopes	-12675
▁resid	-12676
▁crowds	-12677
▁fossil	-12678
▁helmet	-12679
▁mildly	-12680
▁pizzas	-12681
▁alleged	-12682
▁rectang	-12683
▁Military	-12684
▁escalate	-12685
▁informal	-12686
▁sentient	-12687
▁stubborn	-12688
▁aftermath	-12689
▁integrity	-12690
▁strongest	-12691
▁uplifting	-12692
▁derogatory	-12693
▁essentials	-12694
▁performances	-12695
gger	-12696
▁Set	-12697
▁cel	-12698
▁tum	-12699
▁Drink	-12700
▁lanes	-12701
▁funded	-12702
▁rushed	-12703
▁pencils	-12704
▁pouring	-12705
▁pronoun	-12706
▁designer	-12707
▁treatments	-12708
alm	-12709
isd	-12710
▁Lil	-12711
▁ski	-12712
erness	-12713
uitive	-12714
▁batch	-12715
▁drums	-12716
▁filler	-12717
▁smiles	-12718
ensitive	-12719
izophren	-12720
▁altered	-12721
▁handles	-12722
▁lawsuit	-12723
▁raining	-12724
▁subsequ	-12725
▁observed	-12726
▁counselor	-12727
▁disorders	-12728
▁resistant	-12729
▁complaints	-12730
▁convention	-12731
▁outrageous	-12732
▁progressive	-12733
ERY	-12734
ench	-12735
▁Tha	-12736
▁roy	-12737
erate	-12738
▁Grey	-12739
▁Rest	-12740
▁tsun	-12741
▁acron	-12742
▁admire	-12743
▁bachel	-12744
▁lemons	-12745
▁relies	-12746
▁resent	-12747
▁filming	-12748
▁inspire	-12749
▁posters	-12750
▁pyramid	-12751
▁Needless	-12752
▁featured	-12753
▁homemade	-12754
▁completed	-12755
▁censorship	-12756
▁smartphone	-12757
nI	-12758
Eng	-12759
▁SA	-12760
▁Bab	-12761
▁Bry	-12762
dings	-12763
ffiti	-12764
▁noun	-12765
▁ware	-12766
ergart	-12767
inkles	-12768
▁carbs	-12769
▁divis	-12770
▁looph	-12771
▁contam	-12772
▁misery	-12773
▁prayer	-12774
▁waiter	-12775
▁wounds	-12776
▁inherent	-12777
▁matching	-12778
▁authoritarian	-12779
uba	-12780
▁MA	-12781
iors	-12782
yson	-12783
ancer	-12784
itoes	-12785
entric	-12786
▁lacks	-12787
▁Wouldn	-12788
▁amazed	-12789
▁pisses	-12790
▁portra	-12791
▁rumors	-12792
▁inflamm	-12793
▁intoler	-12794
▁immature	-12795
LC	-12796
IGHT	-12797
brid	-12798
cond	-12799
keep	-12800
kids	-12801
▁Hur	-12802
block	-12803
▁Expl	-12804
▁Main	-12805
▁muff	-12806
erning	-12807
▁eyebr	-12808
▁hurry	-12809
atively	-12810
▁biases	-12811
▁chills	-12812
▁kissed	-12813
▁spoiled	-12814
▁traumat	-12815
▁Universe	-12816
▁crushing	-12817
▁injustice	-12818
earl	-12819
iper	-12820
▁Burn	-12821
▁Phys	-12822
▁flee	-12823
▁forb	-12824
▁goss	-12825
▁slope	-12826
ocating	-12827
respons	-12828
▁Golden	-12829
▁storms	-12830
▁Android	-12831
▁sparked	-12832
▁thicker	-12833
▁thankful	-12834
▁hindsight	-12835
▁extinction	-12836
isa	-12837
ille	-12838
opia	-12839
▁196	-12840
▁Han	-12841
▁hem	-12842
▁ore	-12843
▁Text	-12844
▁ribs	-12845
▁donor	-12846
▁stove	-12847
▁rotten	-12848
▁subsid	-12849
▁Alright	-12850
▁ratings	-12851
▁rewatch	-12852
▁shelves	-12853
▁vicious	-12854
▁wonders	-12855
▁flipping	-12856
▁generous	-12857
▁insanely	-12858
▁exhausting	-12859
▁identities	-12860
▁Considering	-12861
▁anniversary	-12862
▁sentimental	-12863
▁motherfucker	-12864
ause	-12865
nity	-12866
▁fib	-12867
flies	-12868
itzer	-12869
ivals	-12870
▁Bull	-12871
▁Lego	-12872
▁pawn	-12873
▁peel	-12874
orient	-12875
▁Wayne	-12876
▁alley	-12877
▁coach	-12878
▁newer	-12879
▁skirt	-12880
▁brakes	-12881
▁indian	-12882
▁lethal	-12883
▁quirks	-12884
▁salmon	-12885
▁Charlie	-12886
▁consoles	-12887
▁grabbing	-12888
▁troubles	-12889
▁Government	-12890
She	-12891
aaa	-12892
abis	-12893
provo	-12894
utory	-12895
▁Neil	-12896
▁Rain	-12897
▁scal	-12898
ulator	-12899
▁Ghost	-12900
▁merch	-12901
vengers	-12902
▁preced	-12903
▁amongst	-12904
▁captured	-12905
▁dumpster	-12906
▁reserved	-12907
▁virginity	-12908
▁disabilities	-12909
mg	-12910
tv	-12911
irc	-12912
ulp	-12913
▁Lar	-12914
▁NPC	-12915
angel	-12916
▁2018	-12917
▁Than	-12918
▁Pepsi	-12919
▁chief	-12920
▁spine	-12921
▁wages	-12922
▁woken	-12923
▁cowboy	-12924
▁deflect	-12925
▁edition	-12926
▁nursing	-12927
▁pillows	-12928
▁utterly	-12929
▁Republican	-12930
▁strawberry	-12931
▁explanations	-12932
cor	-12933
hake	-12934
zart	-12935
▁Mys	-12936
▁Rub	-12937
▁doo	-12938
▁Carl	-12939
▁Easy	-12940
▁haul	-12941
▁hike	-12942
▁Based	-12943
▁disli	-12944
▁genes	-12945
▁oddly	-12946
▁unpop	-12947
▁Valley	-12948
▁slices	-12949
▁dentists	-12950
▁immunity	-12951
▁thermost	-12952
▁instances	-12953
▁challenged	-12954
▁referencing	-12955
6.	-12956
eu	-12957
adv	-12958
▁Tar	-12959
▁UFO	-12960
▁WOR	-12961
▁Cool	-12962
▁bait	-12963
▁knot	-12964
▁stam	-12965
acular	-12966
ardash	-12967
▁alike	-12968
▁nause	-12969
▁nukes	-12970
▁ruins	-12971
▁thief	-12972
▁Virgin	-12973
▁gallon	-12974
▁Pacific	-12975
▁Seattle	-12976
▁shortly	-12977
▁sucking	-12978
▁upvoted	-12979
▁concerts	-12980
▁lightsab	-12981
▁stumbled	-12982
▁consuming	-12983
▁separated	-12984
▁accidental	-12985
▁prescribed	-12986
▁comfortably	-12987
▁introverted	-12988
aton	-12989
bean	-12990
seud	-12991
▁Dom	-12992
icians	-12993
▁Chuck	-12994
▁Spain	-12995
▁bench	-12996
▁meats	-12997
▁Hawaii	-12998
▁drawer	-12999
▁intake	-13000
▁unexpl	-13001
▁visits	-13002
▁consult	-13003
▁magnetic	-13004
▁refusing	-13005
ologically	-13006
▁colleagues	-13007
▁wheelchair	-13008
▁antibiotics	-13009
▁Cy	-13010
pace	-13011
▁Road	-13012
▁dice	-13013
▁merg	-13014
▁rhet	-13015
▁reads	-13016
▁ethnic	-13017
▁amusing	-13018
▁breakup	-13019
▁eastern	-13020
▁fathers	-13021
▁insisted	-13022
▁components	-13023
▁Pu	-13024
igen	-13025
make	-13026
ubers	-13027
uffle	-13028
▁thie	-13029
▁ninja	-13030
▁Change	-13031
▁Yellow	-13032
▁astrol	-13033
▁Whether	-13034
▁surreal	-13035
▁cinnamon	-13036
▁contracts	-13037
▁conservatives	-13038
▁LE	-13039
rons	-13040
▁1.5	-13041
▁Sup	-13042
fight	-13043
maybe	-13044
▁Hold	-13045
▁chin	-13046
▁Until	-13047
▁gases	-13048
▁mafia	-13049
▁preca	-13050
▁Orange	-13051
▁fusion	-13052
▁handful	-13053
▁February	-13054
▁shelters	-13055
▁tolerate	-13056
▁collected	-13057
▁incentive	-13058
▁landscape	-13059
▁respecting	-13060
ez	-13061
va	-13062
aser	-13063
▁Area	-13064
▁symm	-13065
▁scams	-13066
▁tails	-13067
ointing	-13068
▁Except	-13069
▁friday	-13070
▁Thought	-13071
▁borrowed	-13072
▁colorful	-13073
▁provider	-13074
▁upcoming	-13075
▁competing	-13076
ctu	-13077
ims	-13078
pad	-13079
▁CC	-13080
▁yu	-13081
ikes	-13082
news	-13083
▁Cou	-13084
▁yrs	-13085
first	-13086
innie	-13087
quila	-13088
▁Radio	-13089
▁allev	-13090
▁elbow	-13091
▁flirt	-13092
ocative	-13093
▁backed	-13094
▁mining	-13095
specific	-13096
▁declared	-13097
▁PE	-13098
▁ft	-13099
▁Kat	-13100
▁gir	-13101
orous	-13102
▁Ball	-13103
▁WHAT	-13104
▁Zoom	-13105
▁arab	-13106
▁beta	-13107
▁glow	-13108
donald	-13109
vation	-13110
▁spook	-13111
▁hahaha	-13112
▁hunter	-13113
▁suburb	-13114
▁Muslims	-13115
▁advertis	-13116
▁deceased	-13117
▁discrimin	-13118
▁explosive	-13119
▁priceless	-13120
▁primarily	-13121
▁prominent	-13122
▁witnesses	-13123
▁conference	-13124
▁tendencies	-13125
▁exaggerated	-13126
▁Christianity	-13127
24	-13128
hit	-13129
▁FR	-13130
oner	-13131
claim	-13132
kespe	-13133
riced	-13134
▁VERY	-13135
▁WiFi	-13136
▁sigh	-13137
itched	-13138
▁Stand	-13139
looking	-13140
▁bikini	-13141
▁thingy	-13142
▁vastly	-13143
▁gadgets	-13144
▁tuition	-13145
▁artistic	-13146
▁Starbucks	-13147
▁prisoners	-13148
▁monitoring	-13149
▁PL	-13150
▁ox	-13151
empl	-13152
love	-13153
▁80%	-13154
▁Spot	-13155
▁icon	-13156
▁sync	-13157
rative	-13158
▁Short	-13159
▁expir	-13160
▁wakes	-13161
▁Seeing	-13162
▁breeds	-13163
▁dement	-13164
▁diving	-13165
▁firing	-13166
▁adapted	-13167
▁victory	-13168
▁birthdays	-13169
▁dimension	-13170
▁nicknames	-13171
▁universes	-13172
▁medications	-13173
▁–	-13174
▁FA	-13175
▁bb	-13176
pite	-13177
uffs	-13178
▁Jay	-13179
▁anus	-13180
▁pose	-13181
▁ladder	-13182
▁russia	-13183
▁October	-13184
▁expense	-13185
▁whatnot	-13186
▁crawling	-13187
▁database	-13188
▁imperial	-13189
▁quarters	-13190
▁disregard	-13191
▁motivations	-13192
ENT	-13193
ERS	-13194
ima	-13195
comp	-13196
heim	-13197
▁Boo	-13198
▁Max	-13199
THING	-13200
▁....	-13201
▁3000	-13202
▁Full	-13203
▁edges	-13204
▁heels	-13205
▁lasts	-13206
▁prick	-13207
▁stray	-13208
▁Martin	-13209
▁mixture	-13210
▁greeting	-13211
▁hardcore	-13212
▁headache	-13213
▁addressed	-13214
▁unethical	-13215
▁immigrants	-13216
▁influential	-13217
▁supermarket	-13218
▁stereotypical	-13219
BC	-13220
▁|	-13221
het	-13222
▁pel	-13223
eland	-13224
icorn	-13225
▁Bird	-13226
▁Less	-13227
▁bout	-13228
▁gene	-13229
ilight	-13230
▁jesus	-13231
▁Taylor	-13232
▁nicest	-13233
▁pricey	-13234
▁spilled	-13235
fortunate	-13236
▁abstract	-13237
▁civilian	-13238
▁meanings	-13239
▁nicotine	-13240
▁smelling	-13241
▁delivering	-13242
▁protesting	-13243
▁compliments	-13244
▁corporation	-13245
CA	-13246
▁Os	-13247
----	-13248
Some	-13249
flow	-13250
▁Far	-13251
▁Anti	-13252
▁Self	-13253
▁bras	-13254
▁visa	-13255
ometer	-13256
▁illeg	-13257
▁Daniel	-13258
▁notion	-13259
▁waving	-13260
▁flavour	-13261
▁licking	-13262
▁supreme	-13263
▁measured	-13264
▁scrolling	-13265
▁approaches	-13266
▁innovative	-13267
▁desperately	-13268
▁condescending	-13269
▁manufacturers	-13270
abor	-13271
▁USS	-13272
▁bog	-13273
▁seiz	-13274
▁asses	-13275
▁initi	-13276
▁boxing	-13277
▁poetry	-13278
▁routes	-13279
▁Hendrix	-13280
▁executed	-13281
▁tangible	-13282
bas	-13283
oda	-13284
zona	-13285
▁HIV	-13286
▁cis	-13287
▁hay	-13288
▁Used	-13289
▁inac	-13290
▁mant	-13291
▁thru	-13292
▁attic	-13293
▁taboo	-13294
▁chunks	-13295
▁meteor	-13296
▁miscar	-13297
▁neural	-13298
▁nipple	-13299
▁suspic	-13300
▁athlete	-13301
▁furious	-13302
▁starter	-13303
▁emissions	-13304
▁partially	-13305
▁confronted	-13306
▁42	-13307
blem	-13308
▁Mot	-13309
▁Ray	-13310
bling	-13311
▁Norm	-13312
▁negl	-13313
▁raid	-13314
▁xbox	-13315
riages	-13316
▁Jason	-13317
▁decay	-13318
▁resur	-13319
animate	-13320
▁shrimp	-13321
▁visuals	-13322
▁failures	-13323
▁promising	-13324
▁understands	-13325
▁contradiction	-13326
text	-13327
worm	-13328
▁clo	-13329
▁Zomb	-13330
▁bark	-13331
▁cola	-13332
allica	-13333
phrase	-13334
▁dehyd	-13335
▁lover	-13336
▁tones	-13337
Because	-13338
▁domain	-13339
▁fantas	-13340
▁grease	-13341
▁hotels	-13342
ergarten	-13343
▁absence	-13344
▁diapers	-13345
▁flowing	-13346
▁tedious	-13347
hu	-13348
rill	-13349
ulum	-13350
▁NOW	-13351
▁Lady	-13352
▁bent	-13353
▁aspir	-13354
▁dryer	-13355
▁maker	-13356
▁meter	-13357
▁whale	-13358
thought	-13359
▁Follow	-13360
▁gifted	-13361
▁nephew	-13362
▁towers	-13363
▁undert	-13364
▁caramel	-13365
▁dragged	-13366
▁Hogwarts	-13367
▁attended	-13368
▁minimize	-13369
▁navigating	-13370
▁emergencies	-13371
oia	-13372
▁Ta	-13373
esse	-13374
ieve	-13375
spir	-13376
▁Cas	-13377
▁gam	-13378
arden	-13379
▁Matt	-13380
▁attire	-13381
▁jurisd	-13382
▁rigged	-13383
▁stigma	-13384
▁florida	-13385
▁popping	-13386
▁tipping	-13387
▁underage	-13388
▁detention	-13389
▁Depression	-13390
▁compatible	-13391
▁storylines	-13392
▁concentrate	-13393
▁deliberately	-13394
▁approximately	-13395
88	-13396
fre	-13397
ooo	-13398
umn	-13399
▁Lif	-13400
▁Meg	-13401
▁awe	-13402
▁wig	-13403
▁HAVE	-13404
▁Marty	-13405
▁River	-13406
▁recur	-13407
▁voter	-13408
▁cliche	-13409
▁sitcom	-13410
▁repairs	-13411
▁unaware	-13412
▁Scotland	-13413
▁dictator	-13414
▁profiles	-13415
▁insecurity	-13416
▁masturbate	-13417
▁misleading	-13418
▁institutions	-13419
▁instrumental	-13420
vet	-13421
UUUU	-13422
▁Band	-13423
▁Priv	-13424
▁Final	-13425
▁antiv	-13426
▁chart	-13427
▁fatig	-13428
▁myths	-13429
▁hacked	-13430
▁pedest	-13431
▁volunt	-13432
▁bubbles	-13433
▁habitat	-13434
▁pudding	-13435
▁goodness	-13436
▁hydrogen	-13437
▁developer	-13438
▁discontin	-13439
▁exercising	-13440
▁psychedelic	-13441
▁philosophical	-13442
33	-13443
pled	-13444
▁Pass	-13445
▁Sing	-13446
▁stash	-13447
▁expose	-13448
▁bitches	-13449
▁genocide	-13450
▁prospect	-13451
▁wordplay	-13452
▁awkwardly	-13453
▁differing	-13454
▁improving	-13455
▁vegetable	-13456
▁mayonnaise	-13457
▁documentaries	-13458
DC	-13459
▁TI	-13460
"...	-13461
...)	-13462
take	-13463
▁sip	-13464
▁Dont	-13465
▁Haha	-13466
▁sway	-13467
spring	-13468
▁Wendy	-13469
▁Palest	-13470
▁affair	-13471
▁Brother	-13472
▁crashes	-13473
▁lecture	-13474
▁powered	-13475
▁promises	-13476
▁rotation	-13477
etherlands	-13478
▁paralysis	-13479
▁separately	-13480
inf	-13481
▁FL	-13482
skin	-13483
▁Ham	-13484
oking	-13485
▁nuke	-13486
▁reli	-13487
atever	-13488
ometry	-13489
▁Magic	-13490
▁nicer	-13491
▁stunt	-13492
ictions	-13493
kespeare	-13494
▁masters	-13495
▁pressed	-13496
▁smashed	-13497
▁Computer	-13498
▁Monopoly	-13499
▁passport	-13500
▁girlfriends	-13501
▁masterpiece	-13502
UN	-13503
***	-13504
▁PA	-13505
▁rn	-13506
bone	-13507
know	-13508
▁250	-13509
heart	-13510
▁Cast	-13511
biased	-13512
▁Medic	-13513
▁draws	-13514
▁pseud	-13515
▁erotic	-13516
▁escort	-13517
▁sweaty	-13518
▁scandal	-13519
▁sympathy	-13520
▁emphasize	-13521
▁manageable	-13522
▁stimulation	-13523
FK	-13524
hub	-13525
mmmm	-13526
quet	-13527
▁Ann	-13528
▁lid	-13529
▁mes	-13530
▁frog	-13531
▁farms	-13532
▁hairs	-13533
astrous	-13534
daughter	-13535
▁novelty	-13536
▁conclude	-13537
▁skipping	-13538
▁producers	-13539
▁complained	-13540
▁vaccinated	-13541
-40	-13542
iva	-13543
hard	-13544
shot	-13545
tles	-13546
elect	-13547
fires	-13548
marks	-13549
super	-13550
▁Dent	-13551
▁sang	-13552
izzard	-13553
▁scout	-13554
▁Cruise	-13555
▁invade	-13556
▁bowling	-13557
▁Scottish	-13558
▁circular	-13559
▁downfall	-13560
▁pathetic	-13561
▁unstable	-13562
▁inanimate	-13563
▁protocols	-13564
▁officially	-13565
▁notoriously	-13566
00,	-13567
00.	-13568
guy	-13569
▁DJ	-13570
▁Lin	-13571
▁Ver	-13572
▁nah	-13573
lette	-13574
icycle	-13575
strong	-13576
▁advis	-13577
▁agenda	-13578
▁bender	-13579
▁bosses	-13580
▁doomed	-13581
▁fucker	-13582
▁Country	-13583
▁durable	-13584
▁startup	-13585
▁tournam	-13586
provoking	-13587
▁diabetes	-13588
▁bandwidth	-13589
▁monologue	-13590
▁presidents	-13591
▁requirement	-13592
apy	-13593
mil	-13594
ods	-13595
▁65	-13596
olar	-13597
safe	-13598
▁moo	-13599
emics	-13600
print	-13601
▁Foot	-13602
▁wires	-13603
▁locker	-13604
▁helpless	-13605
▁california	-13606
▁networking	-13607
▁profitable	-13608
▁distracting	-13609
▁millennials	-13610
EC	-13611
wa	-13612
▁SP	-13613
plex	-13614
avage	-13615
ipher	-13616
▁Five	-13617
▁blat	-13618
▁jugg	-13619
▁backs	-13620
▁gangs	-13621
▁manga	-13622
▁vessel	-13623
▁zipper	-13624
▁crackers	-13625
▁escaping	-13626
▁multiply	-13627
especially	-13628
▁audiences	-13629
▁distorted	-13630
▁requiring	-13631
▁downloading	-13632
LK	-13633
▁$7	-13634
educ	-13635
reeze	-13636
▁gram	-13637
▁lect	-13638
rality	-13639
▁Alien	-13640
▁Looks	-13641
▁mates	-13642
▁penet	-13643
lishing	-13644
▁overse	-13645
▁carefree	-13646
▁bothering	-13647
▁continent	-13648
▁exceptions	-13649
▁uncontroll	-13650
▁progression	-13651
▁BUT	-13652
▁HBO	-13653
▁omn	-13654
acter	-13655
early	-13656
▁Four	-13657
▁stew	-13658
▁Third	-13659
▁verse	-13660
ichigan	-13661
▁reader	-13662
▁restra	-13663
▁Working	-13664
▁reinfor	-13665
▁stealth	-13666
▁cracking	-13667
▁criteria	-13668
▁discriminatory	-13669
▁Bud	-13670
▁sau	-13671
▁Ohio	-13672
▁dong	-13673
▁tags	-13674
itness	-13675
urable	-13676
▁gravy	-13677
▁poker	-13678
▁rebel	-13679
▁shore	-13680
▁wives	-13681
▁sexist	-13682
lessness	-13683
▁General	-13684
▁pumpkin	-13685
▁storing	-13686
▁superst	-13687
▁vibrant	-13688
▁cheapest	-13689
▁clicking	-13690
▁veterans	-13691
▁expansion	-13692
▁apologized	-13693
▁encounters	-13694
▁possessions	-13695
▁cringeworthy	-13696
At	-13697
mom	-13698
▁AF	-13699
alsa	-13700
▁Cars	-13701
▁Deep	-13702
▁goth	-13703
▁scor	-13704
inates	-13705
osable	-13706
▁bunny	-13707
▁corny	-13708
avorite	-13709
▁eaters	-13710
▁rename	-13711
▁notices	-13712
▁concerning	-13713
▁preparation	-13714
▁unexpectedly	-13715
alks	-13716
▁Ive	-13717
▁pes	-13718
▁pix	-13719
▁yay	-13720
adian	-13721
athon	-13722
ccoli	-13723
▁Mean	-13724
▁bong	-13725
driven	-13726
ippers	-13727
▁mimic	-13728
venture	-13729
▁clocks	-13730
▁cabinet	-13731
▁customs	-13732
▁shooter	-13733
itzerland	-13734
▁advocate	-13735
▁vampires	-13736
▁logistics	-13737
▁scratching	-13738
▁volunteering	-13739
coon	-13740
▁unl	-13741
entai	-13742
orial	-13743
▁2017	-13744
▁Khan	-13745
▁Phot	-13746
▁evap	-13747
▁greed	-13748
▁olive	-13749
▁Alaska	-13750
▁preval	-13751
▁anesthes	-13752
▁imaginary	-13753
▁occasional	-13754
▁separation	-13755
▁variations	-13756
pen	-13757
akin	-13758
town	-13759
ugly	-13760
ensed	-13761
▁Land	-13762
▁crem	-13763
▁Bring	-13764
▁soooo	-13765
▁rounds	-13766
▁circuit	-13767
▁pooping	-13768
▁readers	-13769
▁distingu	-13770
▁terminal	-13771
▁transparent	-13772
fem	-13773
rag	-13774
rec	-13775
uch	-13776
▁NC	-13777
inea	-13778
▁Mir	-13779
▁ecc	-13780
▁Bang	-13781
▁carn	-13782
▁pity	-13783
ursday	-13784
▁mario	-13785
contrib	-13786
▁dining	-13787
▁ahhahaha	-13788
▁calmness	-13789
▁deleting	-13790
▁companion	-13791
▁highlights	-13792
▁wilderness	-13793
?".	-13794
athe	-13795
▁Blu	-13796
great	-13797
▁Lake	-13798
▁kern	-13799
formed	-13800
iances	-13801
profit	-13802
umbing	-13803
▁retro	-13804
▁umami	-13805
pelling	-13806
ritical	-13807
▁Stalin	-13808
▁hitler	-13809
▁overre	-13810
▁Finland	-13811
▁barking	-13812
▁snapped	-13813
▁touches	-13814
▁momentum	-13815
▁printers	-13816
▁proposed	-13817
▁reacting	-13818
▁negotiate	-13819
▁slaughter	-13820
▁algorithms	-13821
▁questioned	-13822
ANT	-13823
▁LI	-13824
oton	-13825
▁20'	-13826
▁Won	-13827
oping	-13828
umper	-13829
▁Saudi	-13830
▁Throw	-13831
▁atroc	-13832
▁boats	-13833
▁stalk	-13834
▁Columb	-13835
▁fluids	-13836
▁Medical	-13837
▁dumbass	-13838
including	-13839
▁inflation	-13840
▁pressures	-13841
▁unpopular	-13842
▁representative	-13843
/4	-13844
agna	-13845
hend	-13846
rypt	-13847
ubby	-13848
▁grid	-13849
ppelin	-13850
taking	-13851
ethoven	-13852
lements	-13853
▁farmer	-13854
▁output	-13855
▁suited	-13856
▁hangover	-13857
▁parental	-13858
▁poisonous	-13859
▁disastrous	-13860
▁thermostat	-13861
▁investments	-13862
▁schizophren	-13863
ku	-13864
rans	-13865
iator	-13866
plant	-13867
▁Harr	-13868
▁buses	-13869
▁punct	-13870
▁boomer	-13871
▁extend	-13872
▁mouths	-13873
▁praise	-13874
▁Einstein	-13875
▁Princess	-13876
▁culinary	-13877
▁leftover	-13878
▁endurance	-13879
▁redemption	-13880
wo	-13881
sub	-13882
▁Mi	-13883
hour	-13884
▁18,	-13885
orian	-13886
▁eard	-13887
▁taxi	-13888
atical	-13889
urious	-13890
▁Honey	-13891
▁aches	-13892
▁bloom	-13893
▁globe	-13894
▁gorge	-13895
▁blades	-13896
▁lenses	-13897
▁plugged	-13898
▁statues	-13899
▁punching	-13900
▁silently	-13901
▁visually	-13902
▁developers	-13903
▁sensational	-13904
▁dramatically	-13905
▁suspiciously	-13906
▁SN	-13907
▁Um	-13908
▁Les	-13909
▁hij	-13910
▁Coll	-13911
▁bure	-13912
▁omin	-13913
▁stun	-13914
▁atoms	-13915
▁fract	-13916
▁scrub	-13917
▁Pepper	-13918
▁mellow	-13919
▁prejud	-13920
▁Vatican	-13921
▁islands	-13922
▁notable	-13923
▁quicker	-13924
▁Watching	-13925
▁routines	-13926
▁suitcase	-13927
▁amendment	-13928
▁contained	-13929
▁incidents	-13930
▁reasonably	-13931
▁constraints	-13932
▁architecture	-13933
▁functionality	-13934
sen	-13935
▁Gib	-13936
▁blu	-13937
▁hhh	-13938
▁tamp	-13939
▁vest	-13940
▁1,000	-13941
▁Guess	-13942
▁Sound	-13943
▁spont	-13944
▁judges	-13945
▁observ	-13946
▁Charles	-13947
▁propose	-13948
▁puppies	-13949
▁estimate	-13950
▁introverts	-13951
▁procrastination	-13952
▁MP	-13953
▁Na	-13954
last	-13955
umpy	-13956
▁Bul	-13957
▁Rod	-13958
▁gov	-13959
grade	-13960
quate	-13961
▁2008	-13962
▁Times	-13963
▁dolph	-13964
▁lifted	-13965
▁skirts	-13966
▁hosting	-13967
▁limiting	-13968
▁personnel	-13969
▁Scientists	-13970
▁celebrated	-13971
▁purchasing	-13972
▁restricted	-13973
▁Afghanistan	-13974
▁celebrating	-13975
▁predictions	-13976
▁introduction	-13977
oqu	-13978
▁Pic	-13979
▁cro	-13980
▁wel	-13981
afood	-13982
funny	-13983
opers	-13984
▁True	-13985
▁euph	-13986
▁lore	-13987
agraph	-13988
omsday	-13989
▁Older	-13990
▁corps	-13991
▁Planet	-13992
▁bumper	-13993
▁cheeks	-13994
▁swings	-13995
▁valley	-13996
▁smartest	-13997
▁Francisco	-13998
▁inspiring	-13999
▁schedules	-14000
▁textbooks	-14001
▁constitution	-14002
?!"	-14003
lar	-14004
chat	-14005
reas	-14006
▁Row	-14007
▁Wish	-14008
▁claw	-14009
▁pads	-14010
commun	-14011
▁carts	-14012
▁hatch	-14013
▁modest	-14014
▁antenna	-14015
▁pissing	-14016
▁simpler	-14017
▁sinking	-14018
▁thunder	-14019
▁beginner	-14020
▁responds	-14021
▁moderation	-14022
contributory	-14023
▁unfortunate	-14024
acer	-14025
wart	-14026
▁10-	-14027
▁Rev	-14028
icting	-14029
mented	-14030
▁indul	-14031
▁Father	-14032
▁courts	-14033
▁damned	-14034
▁marvel	-14035
▁naught	-14036
▁Service	-14037
▁ongoing	-14038
▁violets	-14039
▁Colorado	-14040
▁dominate	-14041
▁selected	-14042
▁someones	-14043
▁universally	-14044
▁increasingly	-14045
IDS	-14046
nuts	-14047
wild	-14048
▁Ros	-14049
▁tok	-14050
athan	-14051
immer	-14052
▁Side	-14053
entine	-14054
▁Gates	-14055
▁Sarah	-14056
▁drift	-14057
▁mexico	-14058
▁Leonard	-14059
▁authors	-14060
▁dementia	-14061
▁melodies	-14062
▁occupied	-14063
▁resonate	-14064
▁mysteries	-14065
▁precisely	-14066
2:	-14067
▁Ju	-14068
▁TR	-14069
dogs	-14070
laws	-14071
▁Jur	-14072
▁Acad	-14073
▁hacks	-14074
▁inbox	-14075
▁Mozart	-14076
▁compos	-14077
▁edited	-14078
........	-14079
▁pennies	-14080
▁renting	-14081
▁sincere	-14082
▁discoura	-14083
▁leverage	-14084
▁smoothly	-14085
▁eccentric	-14086
▁travelling	-14087
▁introducing	-14088
.)?	-14089
Get	-14090
▁EM	-14091
elph	-14092
▁Dec	-14093
abama	-14094
▁Cart	-14095
▁pudd	-14096
▁Court	-14097
▁Honda	-14098
▁grind	-14099
▁surre	-14100
▁ankles	-14101
▁collar	-14102
▁deduce	-14103
▁ration	-14104
▁tossed	-14105
▁genital	-14106
▁robbing	-14107
▁shifted	-14108
▁resulted	-14109
▁addresses	-14110
▁Coronavirus	-14111
▁manipulated	-14112
-9	-14113
35	-14114
dar	-14115
say	-14116
▁(8	-14117
▁axe	-14118
adium	-14119
dream	-14120
▁cakes	-14121
▁serves	-14122
▁themed	-14123
▁Millenn	-14124
▁analogy	-14125
▁fatigue	-14126
▁gateway	-14127
?'	-14128
sk	-14129
dam	-14130
jor	-14131
usk	-14132
▁yr	-14133
rugs	-14134
▁Fro	-14135
▁Gre	-14136
▁haz	-14137
kings	-14138
steps	-14139
▁nazi	-14140
ogical	-14141
▁arous	-14142
▁fifth	-14143
▁teddy	-14144
▁Eating	-14145
▁bitten	-14146
▁colder	-14147
▁farting	-14148
▁inhabit	-14149
▁Security	-14150
▁triangle	-14151
▁weddings	-14152
▁Elizabeth	-14153
▁correlation	-14154
▁enthusiastic	-14155
▁legitimately	-14156
▁IRS	-14157
▁SUV	-14158
▁unm	-14159
earch	-14160
▁Arch	-14161
▁Cris	-14162
▁Feel	-14163
▁vend	-14164
rolled	-14165
▁Ellen	-14166
▁allig	-14167
▁arent	-14168
▁curve	-14169
▁juicy	-14170
▁minus	-14171
▁defect	-14172
▁latter	-14173
▁banging	-14174
▁deepest	-14175
▁targets	-14176
▁graffiti	-14177
▁starving	-14178
▁suppress	-14179
▁organizing	-14180
▁disappointing	-14181
5)	-14182
ITH	-14183
lan	-14184
lyn	-14185
uty	-14186
vas	-14187
▁CR	-14188
▁DA	-14189
▁WE	-14190
boat	-14191
onto	-14192
▁Oce	-14193
▁Son	-14194
▁1980	-14195
▁ISIS	-14196
▁gains	-14197
▁grams	-14198
▁niece	-14199
fashion	-14200
▁Oregon	-14201
▁junior	-14202
curities	-14203
▁beloved	-14204
▁confess	-14205
▁ominous	-14206
▁penguin	-14207
▁arrogant	-14208
▁branches	-14209
▁tripping	-14210
▁underest	-14211
▁pretended	-14212
▁satellite	-14213
▁commentary	-14214
LP	-14215
Any	-14216
WAY	-14217
aac	-14218
earth	-14219
grown	-14220
▁ADHD	-14221
▁bake	-14222
axxers	-14223
▁Bezos	-14224
▁erupt	-14225
▁hears	-14226
▁metab	-14227
▁obsess	-14228
ffective	-14229
▁flavored	-14230
▁regulate	-14231
▁elephants	-14232
▁deliberate	-14233
▁dictionary	-14234
▁futuristic	-14235
▁respective	-14236
▁assassination	-14237
▁confrontation	-14238
edo	-14239
too	-14240
alia	-14241
card	-14242
then	-14243
type	-14244
▁Sna	-14245
▁ape	-14246
guard	-14247
▁Test	-14248
▁brag	-14249
▁kink	-14250
rating	-14251
▁blues	-14252
igenous	-14253
▁Square	-14254
▁boiled	-14255
▁subtit	-14256
▁colored	-14257
▁settled	-14258
▁colleges	-14259
▁predator	-14260
▁pyramids	-14261
▁sections	-14262
▁strictly	-14263
▁butterfly	-14264
▁judgement	-14265
▁optimistic	-14266
▁genetically	-14267
▁perceptions	-14268
▁acknowledges	-14269
▁manifestation	-14270
KK	-14271
▁33	-14272
▁ko	-14273
uuuu	-14274
▁EMP	-14275
adder	-14276
armed	-14277
▁Eric	-14278
▁Male	-14279
▁Move	-14280
▁Much	-14281
reated	-14282
▁Tesla	-14283
▁lakes	-14284
▁Future	-14285
▁Truman	-14286
▁carrots	-14287
▁cricket	-14288
▁hacking	-14289
▁surprises	-14290
▁earthquakes	-14291
▁measurement	-14292
AAAAAAAAAAAAAAAA	-14293
aria	-14294
inst	-14295
▁Ash	-14296
▁Fat	-14297
▁Nut	-14298
orgia	-14299
▁myst	-14300
▁pond	-14301
▁puff	-14302
▁nudes	-14303
▁rigid	-14304
▁resign	-14305
▁shades	-14306
▁disturb	-14307
▁mocking	-14308
▁reaches	-14309
▁scooter	-14310
▁fighters	-14311
▁Chocolate	-14312
▁cellphone	-14313
▁headaches	-14314
▁submarine	-14315
▁unpredict	-14316
▁believable	-14317
▁misinterpreted	-14318
auc	-14319
bat	-14320
-800	-14321
orie	-14322
thur	-14323
user	-14324
andal	-14325
▁Halo	-14326
▁Scar	-14327
▁blog	-14328
▁cher	-14329
▁seam	-14330
▁appla	-14331
▁nerdy	-14332
▁phobia	-14333
▁trials	-14334
▁banning	-14335
▁regards	-14336
▁viewing	-14337
▁refugees	-14338
▁forbidden	-14339
▁targeting	-14340
▁originated	-14341
▁overpriced	-14342
▁vibrations	-14343
▁celebration	-14344
▁demonstrate	-14345
▁familiarity	-14346
▁sensitivity	-14347
sn	-14348
wow	-14349
idel	-14350
oise	-14351
prop	-14352
▁Tai	-14353
▁2001	-14354
▁Pull	-14355
▁bury	-14356
▁crus	-14357
▁rehe	-14358
▁rode	-14359
▁spat	-14360
▁vert	-14361
elsius	-14362
▁butth	-14363
▁paste	-14364
▁tapes	-14365
▁Public	-14366
▁binary	-14367
▁busted	-14368
▁emerge	-14369
▁sample	-14370
▁Alcohol	-14371
▁decency	-14372
▁freshly	-14373
▁surname	-14374
▁beginners	-14375
▁indicates	-14376
▁obstacles	-14377
")	-14378
hog	-14379
jac	-14380
▁Jr	-14381
onal	-14382
race	-14383
tage	-14384
émon	-14385
▁CPS	-14386
▁Imp	-14387
▁Hall	-14388
▁Past	-14389
▁chim	-14390
▁navy	-14391
▁sire	-14392
▁toll	-14393
itical	-14394
▁cheet	-14395
▁ruler	-14396
▁saint	-14397
▁squid	-14398
profess	-14399
workers	-14400
▁allies	-14401
▁chrome	-14402
▁hybrid	-14403
▁primal	-14404
▁wander	-14405
▁gimmick	-14406
▁beverage	-14407
▁assaulted	-14408
▁collapsed	-14409
▁recurring	-14410
.),	-14411
▁ga	-14412
▁ki	-14413
wash	-14414
▁Cho	-14415
▁eur	-14416
▁owl	-14417
arity	-14418
berty	-14419
▁Dogs	-14420
▁Iowa	-14421
▁gaps	-14422
▁york	-14423
▁brake	-14424
▁clips	-14425
▁slimy	-14426
▁vapor	-14427
▁marine	-14428
▁nuance	-14429
▁stoned	-14430
▁massage	-14431
▁praying	-14432
▁remorse	-14433
▁repeats	-14434
expensive	-14435
▁vanished	-14436
▁commented	-14437
▁passwords	-14438
▁unnatural	-14439
▁$1,000,000	-14440
▁coordination	-14441
▁universities	-14442
▁misunderstand	-14443
wait	-14444
angar	-14445
▁Dest	-14446
▁ambig	-14447
▁digit	-14448
▁repar	-14449
▁roman	-14450
▁scrut	-14451
▁Galaxy	-14452
▁Living	-14453
▁almond	-14454
▁citrus	-14455
▁cursed	-14456
▁catches	-14457
▁equation	-14458
▁singular	-14459
▁warnings	-14460
▁classmate	-14461
▁consumers	-14462
▁detection	-14463
▁foreigners	-14464
▁backgrounds	-14465
▁discontinued	-14466
aky	-14467
rep	-14468
nice	-14469
▁bol	-14470
annel	-14471
▁Oper	-14472
▁malf	-14473
▁poin	-14474
ritten	-14475
▁broth	-14476
▁cheek	-14477
▁debts	-14478
▁latin	-14479
▁schem	-14480
▁trunk	-14481
▁Poland	-14482
▁accomp	-14483
▁casket	-14484
▁demise	-14485
▁digits	-14486
▁tackle	-14487
▁inaccur	-14488
▁Southern	-14489
▁entities	-14490
▁freedoms	-14491
▁Attention	-14492
▁Currently	-14493
▁paragraph	-14494
▁tutorials	-14495
▁spectacular	-14496
▁insecurities	-14497
▁Ce	-14498
ivic	-14499
seen	-14500
▁III	-14501
▁Led	-14502
▁Nap	-14503
▁Whe	-14504
▁Meat	-14505
▁fade	-14506
ailing	-14507
hemian	-14508
▁freel	-14509
▁cleans	-14510
▁Neither	-14511
▁alleviate	-14512
▁arbitrary	-14513
▁categories	-14514
▁charismatic	-14515
▁transferred	-14516
DA	-14517
uma	-14518
▁Ur	-14519
izzy	-14520
▁Nah	-14521
▁Emma	-14522
▁clog	-14523
▁encl	-14524
▁jury	-14525
▁meow	-14526
▁sins	-14527
lihood	-14528
social	-14529
▁Sweet	-14530
▁haunt	-14531
▁wipes	-14532
▁System	-14533
▁announ	-14534
▁assemb	-14535
▁knocks	-14536
▁grounds	-14537
▁nuances	-14538
▁unicorn	-14539
▁gigantic	-14540
▁dictators	-14541
▁promotion	-14542
▁renewable	-14543
MO	-14544
df	-14545
omn	-14546
▁5-	-14547
owns	-14548
▁Lex	-14549
▁Mrs	-14550
▁kin	-14551
▁Thor	-14552
▁tomb	-14553
▁artif	-14554
▁strap	-14555
▁tribe	-14556
hapsody	-14557
▁Norway	-14558
▁resili	-14559
▁Despite	-14560
▁airline	-14561
▁compreh	-14562
▁robotic	-14563
▁sketchy	-14564
▁thieves	-14565
▁monopoly	-14566
▁sneaking	-14567
▁sophistic	-14568
▁playground	-14569
▁reevaluate	-14570
kyo	-14571
pie	-14572
ocre	-14573
usal	-14574
yles	-14575
▁Kra	-14576
▁Low	-14577
▁Sea	-14578
▁TIL	-14579
idges	-14580
▁Coca	-14581
▁Save	-14582
▁Wife	-14583
▁owls	-14584
▁Venus	-14585
▁Woman	-14586
▁queue	-14587
▁Rachel	-14588
▁guinea	-14589
▁rugged	-14590
▁casting	-14591
▁Portland	-14592
▁promoted	-14593
▁relieved	-14594
▁interface	-14595
▁necessity	-14596
▁considerate	-14597
▁knowledgeable	-14598
23	-14599
ahh	-14600
isk	-14601
▁NS	-14602
ados	-14603
expl	-14604
odge	-14605
party	-14606
▁Mort	-14607
placed	-14608
▁overc	-14609
▁texas	-14610
▁metals	-14611
▁Fantasy	-14612
▁avocado	-14613
▁belongs	-14614
▁folding	-14615
▁turtles	-14616
▁arranged	-14617
▁fraction	-14618
▁panicked	-14619
▁passions	-14620
▁promptly	-14621
▁swearing	-14622
▁reinforce	-14623
▁secondary	-14624
▁travelers	-14625
▁explosions	-14626
▁registered	-14627
▁represented	-14628
eda	-14629
acts	-14630
amar	-14631
ucci	-14632
▁Ten	-14633
bians	-14634
▁Coff	-14635
▁Java	-14636
▁loot	-14637
▁fetch	-14638
▁ruled	-14639
▁utens	-14640
▁spends	-14641
▁relieve	-14642
▁Mountain	-14643
▁gorgeous	-14644
▁mushroom	-14645
▁visitors	-14646
▁attitudes	-14647
▁punchline	-14648
▁sociopath	-14649
▁spaceship	-14650
tok	-14651
▁JFK	-14652
▁meg	-14653
pable	-14654
▁Jess	-14655
▁tant	-14656
idable	-14657
▁Drive	-14658
▁Terry	-14659
▁crumb	-14660
▁cured	-14661
▁risky	-14662
▁salsa	-14663
regular	-14664
▁angels	-14665
▁gossip	-14666
boarding	-14667
▁nonstop	-14668
▁peanuts	-14669
▁tasting	-14670
▁compound	-14671
▁headline	-14672
▁overload	-14673
▁disturbed	-14674
▁douchebag	-14675
▁halloween	-14676
▁membership	-14677
km	-14678
dig	-14679
kia	-14680
oen	-14681
▁Er	-14682
▁MMA	-14683
▁NFL	-14684
▁mug	-14685
▁Drop	-14686
▁Pooh	-14687
enties	-14688
▁Alice	-14689
▁Karma	-14690
▁Nobel	-14691
▁Place	-14692
▁yards	-14693
English	-14694
version	-14695
▁Butter	-14696
▁urinal	-14697
▁coastal	-14698
▁satisfy	-14699
▁aquarium	-14700
▁cannabis	-14701
▁imagined	-14702
▁likelihood	-14703
▁identifying	-14704
▁kindergarten	-14705
▁Rh	-14706
inav	-14707
estic	-14708
prise	-14709
umped	-14710
▁Drag	-14711
▁Fish	-14712
▁Nest	-14713
intage	-14714
▁chlor	-14715
▁Listen	-14716
▁softer	-14717
▁crystal	-14718
▁aardvark	-14719
▁inclined	-14720
▁classified	-14721
▁exploiting	-14722
▁formidable	-14723
▁mosquitoes	-14724
▁resilience	-14725
▁certificate	-14726
▁trustworthy	-14727
OULD	-14728
addy	-14729
ifer	-14730
▁$30	-14731
▁Cro	-14732
▁Dor	-14733
▁McG	-14734
▁pas	-14735
▁Dist	-14736
▁syll	-14737
acists	-14738
ensual	-14739
▁Carol	-14740
▁Haven	-14741
▁shove	-14742
▁whore	-14743
blowing	-14744
▁freaks	-14745
▁glance	-14746
▁united	-14747
▁educate	-14748
▁endings	-14749
▁topping	-14750
connected	-14751
▁declined	-14752
▁remained	-14753
▁scattered	-14754
▁compensate	-14755
▁downloaded	-14756
▁implemented	-14757
▁contributions	-14758
▁4)	-14759
...?	-14760
ario	-14761
supp	-14762
▁caf	-14763
ikers	-14764
▁Mult	-14765
▁dope	-14766
▁gaze	-14767
▁herb	-14768
▁hoax	-14769
▁lube	-14770
▁rend	-14771
itable	-14772
▁Barbie	-14773
▁faking	-14774
▁puppet	-14775
▁sodium	-14776
▁seafood	-14777
▁firearms	-14778
▁genitals	-14779
▁handsome	-14780
▁pursuing	-14781
▁soulmate	-14782
girlfriend	-14783
▁Depending	-14784
▁offspring	-14785
▁flashlight	-14786
▁insulation	-14787
▁programmer	-14788
▁confirmation	-14789
Let	-14790
▁1-2	-14791
acist	-14792
igers	-14793
never	-14794
ograp	-14795
ortex	-14796
▁June	-14797
▁marg	-14798
▁Among	-14799
▁bleed	-14800
▁discl	-14801
▁goofy	-14802
▁hooks	-14803
▁obama	-14804
▁spite	-14805
▁Portal	-14806
▁Simple	-14807
▁angles	-14808
▁sliced	-14809
▁tennis	-14810
whatever	-14811
▁Simpson	-14812
▁bottled	-14813
▁invasive	-14814
▁knuckles	-14815
▁unbiased	-14816
▁Holocaust	-14817
▁oppression	-14818
▁republican	-14819
▁conditioned	-14820
▁acquaintances	-14821
▁attractiveness	-14822
sts	-14823
boys	-14824
actus	-14825
thand	-14826
▁mama	-14827
▁mega	-14828
▁Beaut	-14829
▁amate	-14830
▁crops	-14831
▁infur	-14832
▁youre	-14833
▁Easter	-14834
▁boards	-14835
▁losses	-14836
▁patron	-14837
▁richer	-14838
▁runner	-14839
▁spooky	-14840
▁vowels	-14841
▁$10,000	-14842
▁blaming	-14843
▁magnets	-14844
▁puberty	-14845
antically	-14846
▁newfound	-14847
▁partying	-14848
▁platonic	-14849
▁rhetoric	-14850
▁annoyance	-14851
▁warehouse	-14852
▁disposable	-14853
▁Netherlands	-14854
:00	-14855
▁KN	-14856
recy	-14857
anson	-14858
worst	-14859
▁Roll	-14860
▁bros	-14861
advant	-14862
▁crypt	-14863
▁extro	-14864
▁filed	-14865
▁worms	-14866
ifiable	-14867
▁drones	-14868
▁lotion	-14869
▁thumbs	-14870
▁Northern	-14871
▁theaters	-14872
▁converted	-14873
▁Craigslist	-14874
▁containers	-14875
▁neighbours	-14876
▁experimental	-14877
▁DE	-14878
emen	-14879
hire	-14880
robe	-14881
▁beg	-14882
trans	-14883
▁24/7	-14884
▁quad	-14885
▁sabot	-14886
▁venue	-14887
▁Jersey	-14888
▁copper	-14889
▁leaked	-14890
▁summers	-14891
▁balances	-14892
▁fairness	-14893
▁proceeds	-14894
▁strengths	-14895
▁Shakespeare	-14896
bey	-14897
tip	-14898
▁4-	-14899
▁Bi	-14900
atus	-14901
orig	-14902
▁Deb	-14903
▁Dex	-14904
▁dos	-14905
kable	-14906
thank	-14907
▁Corn	-14908
▁Line	-14909
▁Team	-14910
▁Word	-14911
hesive	-14912
icable	-14913
master	-14914
▁Thats	-14915
▁bases	-14916
▁erect	-14917
▁tubes	-14918
▁Around	-14919
▁Python	-14920
▁Rogers	-14921
▁Winnie	-14922
▁thirty	-14923
▁berries	-14924
[...]
